<unk>	0
<s>	0
</s>	0
s	-3.28801
▁	-3.30354
▁the	-3.65262
▁,	-3.76015
▁of	-4.05092
neutral	-4.10683
▁in	-4.13784
▁to	-4.20968
▁"	-4.23434
▁.",	-4.27961
d	-4.38644
▁a	-4.40326
and	-4.42068
ing	-4.43915
▁.,	-4.57567
positive	-4.61855
ed	-4.64726
▁EUR	-4.74997
-	-4.91306
▁for	-4.9832
▁$	-5.14051
m	-5.1477
.	-5.15775
▁'	-5.16341
,	-5.20196
▁is	-5.36364
negative	-5.36496
▁on	-5.44821
n	-5.47005
▁be	-5.47566
▁will	-5.47629
y	-5.51098
▁company	-5.51964
▁The	-5.56863
▁fro	-5.57502
▁m	-5.63508
The	-5.71391
mn	-5.71907
▁by	-5.71918
▁its	-5.71991
e	-5.76087
▁with	-5.79863
%	-5.8429
▁has	-5.84303
▁profit	-5.84564
▁(	-5.86537
▁)	-5.8785
▁sales	-5.91541
▁as	-5.92658
t	-5.93313
ly	-5.95218
▁at	-5.96375
▁million	-5.96827
▁an	-5.9967
▁net	-6.07944
▁Finnish	-6.13291
▁sai	-6.13397
▁that	-6.14266
▁was	-6.14327
▁it	-6.15033
▁year	-6.18016
▁-	-6.2527
a	-6.26519
1	-6.28129
▁mln	-6.29797
▁2009	-6.29863
▁:	-6.30398
▁2008	-6.33711
o	-6.3403
▁period	-6.34197
▁Finland	-6.35782
ies	-6.37404
▁Oy	-6.3824
▁quarter	-6.39489
es	-6.40875
ion	-6.4177
co	-6.45549
▁2007	-6.47389
▁are	-6.49528
j	-6.49588
▁share	-6.50389
▁A	-6.50643
r	-6.51805
▁up	-6.54944
://	-6.55643
▁http	-6.56474
ch	-6.61578
/	-6.62562
A	-6.63015
▁market	-6.63565
▁new	-6.63892
",	-6.64755
▁2010	-6.65667
`	-6.66738
▁first	-6.67876
▁service	-6.68345
▁S	-6.69317
▁C	-6.70256
▁business	-6.73496
▁loss	-6.73664
▁total	-6.74673
In	-6.75304
▁down	-6.76361
▁E	-6.76897
er	-6.7749
ment	-6.77663
▁have	-6.78069
on	-6.78527
'	-6.80299
en	-6.80782
al	-6.81276
0	-6.83106
▁shares	-6.8571
▁operat	-6.87974
▁euro	-6.88043
S	-6.89739
lso	-6.89899
ut	-6.90053
▁whi	-6.91228
▁today	-6.91672
▁s	-6.92343
▁increase	-6.93488
▁2006	-6.93984
▁this	-6.96247
2	-6.98115
ation	-6.98347
▁Group	-6.99106
▁price	-6.9997
▁operation	-7.00264
▁f	-7.01503
▁`	-7.0438
ember	-7.05057
V	-7.05318
st	-7.07082
▁contract	-7.07465
▁corresponding	-7.09208
▁per	-7.09632
▁I	-7.1064
▁group	-7.11979
rom	-7.12462
&	-7.13611
▁Helsinki	-7.13782
▁decrease	-7.17026
ng	-7.18692
le	-7.18802
3	-7.19237
▁abo	-7.20491
▁''	-7.20648
▁percent	-7.20667
▁compare	-7.22956
▁not	-7.23092
▁than	-7.23157
nd	-7.2437
▁plant	-7.2524
▁R	-7.27425
4	-7.27754
▁over	-7.28017
,000	-7.28642
stk	-7.29067
to	-7.29815
been	-7.30825
▁HEL	-7.31433
l	-7.31443
▁1	-7.31884
Finnish	-7.3216
ir	-7.33707
▁O	-7.33931
5	-7.34458
▁2005	-7.34999
▁Nokia	-7.35359
▁some	-7.35756
▁part	-7.36184
▁solution	-7.36377
▁10	-7.37268
were	-7.37303
▁customer	-7.37559
▁system	-7.38882
▁P	-7.39087
▁3	-7.40956
▁value	-7.4104
aid	-7.41142
▁pct	-7.41673
▁M	-7.43356
▁project	-7.43429
▁products	-7.43775
▁second	-7.44357
▁investment	-7.44364
▁or	-7.44444
▁c	-7.44447
▁Bank	-7.4506
▁third	-7.45272
+	-7.45568
▁start	-7.45569
▁after	-7.46391
▁out	-7.46402
▁2	-7.46663
▁production	-7.47241
▁result	-7.47991
▁other	-7.4811
6	-7.48609
▁include	-7.48611
▁well	-7.48962
▁Russia	-7.49145
re	-7.49657
▁financial	-7.49857
▁more	-7.50298
:	-7.50669
▁January	-7.50804
i	-7.50972
▁Corporat	-7.51055
fore	-7.51986
▁OMX	-7.52727
▁earlie	-7.52973
▁T	-7.54816
in	-7.55167
▁USD	-7.55766
ance	-7.56104
▁order	-7.56108
rose	-7.56136
▁end	-7.5616
h	-7.56645
▁B	-7.58353
year	-7.58411
▁fell	-7.58775
8	-7.59342
▁b	-7.59794
▁agreement	-7.59921
▁eur	-7.60635
▁L	-7.60638
▁amount	-7.60869
▁mobile	-7.60914
▁"`	-7.61102
T	-7.61146
▁"$	-7.61451
▁month	-7.61622
om	-7.61726
▁unit	-7.61797
▁would	-7.6193
7	-7.62317
▁5	-7.62485
me	-7.62836
last	-7.62901
.,	-7.62968
▁now	-7.63109
or	-7.63195
Operat	-7.64303
▁deliver	-7.64447
▁20	-7.65577
▁all	-7.66184
able	-7.67198
▁area	-7.67342
▁F	-7.67812
▁CEO	-7.68645
▁lower	-7.68721
▁half	-7.68742
▁deal	-7.68831
▁p	-7.69274
▁technology	-7.6974
▁building	-7.70068
▁one	-7.7057
C	-7.70928
9	-7.71195
▁long	-7.71968
▁4	-7.72041
▁two	-7.72127
▁fr	-7.72173
▁can	-7.72735
▁expected	-7.72994
▁maker	-7.73619
ccording	-7.74132
▁capital	-7.74441
▁billion	-7.74449
▁our	-7.74824
la	-7.75499
G	-7.76167
E	-7.76534
▁report	-7.77125
▁co	-7.7715
▁time	-7.7761
▁6	-7.78241
▁N	-7.78985
▁@	-7.79497
▁buy	-7.79547
▁under	-7.80023
▁high	-7.80561
AAPL	-7.80679
▁industry	-7.80785
▁development	-7.82046
ic	-7.8291
▁growth	-7.83375
▁process	-7.83775
▁totall	-7.83907
▁use	-7.84399
▁large	-7.84692
c	-7.85542
▁acquisition	-7.8599
▁Sept	-7.86243
ever	-7.86501
p	-7.86637
▁Nord	-7.86749
▁manage	-7.86976
▁close	-7.8714
▁includ	-7.87494
▁right	-7.87661
▁employee	-7.87976
▁equip	-7.8816
D	-7.88337
▁sa	-7.88768
▁issue	-7.8917
▁stock	-7.89323
R	-7.89699
▁#	-7.90181
▁D	-7.90618
▁while	-7.90698
ity	-7.90867
▁number	-7.91582
▁paper	-7.91598
▁we	-7.91686
▁provide	-7.91719
g	-7.92118
▁US	-7.92662
▁plan	-7.92845
▁revenue	-7.93032
▁design	-7.93637
▁cut	-7.93727
▁pe	-7.94007
N	-7.9408
▁announce	-7.94412
October	-7.94466
▁approx	-7.94508
um	-7.94586
▁off	-7.94846
▁turn	-7.95568
k	-7.95884
▁30	-7.96373
▁G	-7.96471
▁network	-7.97569
▁electronic	-7.97573
O	-7.97692
▁2011	-7.97794
▁compar	-7.97966
ers	-7.98232
▁Operati	-7.9849
▁stake	-7.99091
▁15	-8.00252
▁offer	-8.00654
▁manufacturer	-8.01135
▁take	-8.01729
▁own	-8.01878
us	-8.02161
▁re	-8.02195
▁support	-8.02196
▁previous	-8.02201
ry	-8.02312
▁March	-8.02697
ty	-8.03388
is	-8.0352
▁go	-8.03755
▁remain	-8.03807
▁base	-8.04159
▁expect	-8.04609
▁non	-8.04615
▁through	-8.05454
▁inform	-8.05748
▁annual	-8.0585
▁office	-8.06102
▁short	-8.06252
ce	-8.06298
▁person	-8.07108
▁volume	-8.07112
▁good	-8.07123
▁dividend	-8.07138
▁April	-8.07181
th	-8.07214
▁option	-8.07281
▁sell	-8.07673
▁We	-8.07974
ple	-8.08098
▁8	-8.08309
TSLA	-8.08767
▁software	-8.08913
▁current	-8.0896
tax	-8.09013
▁sign	-8.09045
P	-8.09104
w	-8.09469
▁see	-8.09643
out	-8.09949
ill	-8.09967
▁target	-8.10529
inen	-8.10887
▁25	-8.1091
an	-8.11323
B	-8.11383
SE	-8.1169
▁reported	-8.11707
▁estimate	-8.11787
▁make	-8.11845
▁Co	-8.12131
▁st	-8.1246
had	-8.12531
K	-8.12642
▁News	-8.12668
▁.	-8.1271
20	-8.12883
H	-8.13081
▁sector	-8.1409
id	-8.15707
▁Board	-8.15886
▁Ltd	-8.15918
▁nine	-8.16021
L	-8.16133
▁e	-8.16134
▁--	-8.162
base	-8.16617
▁bank	-8.17253
▁transaction	-8.17742
▁earnings	-8.17871
▁U	-8.17871
ting	-8.17928
f	-8.17974
▁St	-8.18085
round	-8.18582
▁markets	-8.18809
less	-8.1897
F	-8.18992
▁work	-8.19042
▁pre	-8.19322
▁manufactur	-8.19535
▁cover	-8.19674
▁three	-8.19704
▁steel	-8.19706
▁world	-8.19781
▁China	-8.1982
▁look	-8.19907
▁countr	-8.2091
over	-8.2094
▁dur	-8.21001
▁un	-8.21415
ent	-8.21513
▁May	-8.21732
▁supply	-8.21879
▁but	-8.22041
made	-8.22447
▁Nov	-8.2247
X	-8.22856
▁It	-8.23237
▁data	-8.23322
▁Plc	-8.23507
▁subsidiar	-8.2351
▁100	-8.23564
▁higher	-8.23673
M	-8.24073
▁back	-8.24188
▁Q	-8.24568
▁19	-8.24788
il	-8.25019
day	-8.25124
▁w	-8.25224
▁major	-8.25505
▁level	-8.25508
PS	-8.25564
▁America	-8.25598
00	-8.26152
▁phone	-8.26355
ra	-8.26387
▁Inc	-8.26648
▁line	-8.26674
▁us	-8.27
▁+	-8.27535
▁further	-8.27548
se	-8.27701
▁continue	-8.27704
▁Baltic	-8.2781
eq	-8.28463
▁cent	-8.29369
▁global	-8.29631
imatel	-8.29638
▁significant	-8.29643
u	-8.29782
▁no	-8.29862
▁Aspo	-8.299
▁how	-8.30296
com	-8.30728
▁compan	-8.30956
▁item	-8.31088
▁sale	-8.31172
▁50	-8.31459
▁lead	-8.31825
▁shareholder	-8.31828
▁Va	-8.31869
▁engineer	-8.31927
▁11	-8.32248
▁Swed	-8.32292
el	-8.3255
▁says	-8.32645
ame	-8.32759
▁develop	-8.3281
▁In	-8.32995
▁Thi	-8.3325
▁2004	-8.3333
▁day	-8.33823
▁February	-8.33932
▁Service	-8.33938
▁7	-8.34022
▁Net	-8.34239
▁euros	-8.34592
▁K	-8.34878
▁media	-8.35012
ala	-8.35023
▁term	-8.35095
uch	-8.35145
ve	-8.35218
▁add	-8.3574
▁18	-8.36145
▁application	-8.36164
▁power	-8.3641
▁9	-8.36763
▁product	-8.36832
I	-8.3691
IT	-8.37023
it	-8.37485
▁strong	-8.38436
▁interest	-8.38444
▁supplier	-8.38477
▁.3	-8.38612
▁ha	-8.38827
▁brand	-8.38851
▁Corp	-8.39076
▁12	-8.39264
▁complete	-8.39746
▁wh	-8.39764
▁Scan	-8.39789
ding	-8.39819
▁move	-8.40509
ac	-8.40625
▁near	-8.40678
▁energy	-8.40798
FB	-8.40811
▁most	-8.40822
▁above	-8.4085
▁local	-8.40927
▁negotiation	-8.41025
ince	-8.41131
▁August	-8.41142
▁here	-8.41171
▁next	-8.41228
▁where	-8.4127
resident	-8.41281
month	-8.41283
▁40	-8.41372
▁provider	-8.41603
▁board	-8.41644
▁17	-8.42901
b	-8.42952
ary	-8.43023
▁availab	-8.4313
due	-8.43308
▁reports	-8.43723
▁main	-8.44242
▁employ	-8.44517
▁Stock	-8.45045
fil	-8.45312
▁position	-8.45413
▁material	-8.45569
▁device	-8.45569
▁staff	-8.45569
▁fourth	-8.45597
▁Dec	-8.45599
▁July	-8.45704
▁capacit	-8.45734
▁cost	-8.45754
▁place	-8.46017
very	-8.46069
▁give	-8.46137
▁Y	-8.46146
▁he	-8.46206
ia	-8.46369
curr	-8.4654
▁focus	-8.46675
▁continu	-8.46705
cot	-8.46807
air	-8.4737
▁14	-8.47888
▁acquire	-8.48022
▁exclu	-8.48067
▁release	-8.48079
▁Director	-8.4811
▁communication	-8.48252
▁point	-8.48659
▁AB	-8.49134
▁W	-8.49483
▁trade	-8.4962
Y	-8.49725
comp	-8.49865
▁Finn	-8.49888
▁ship	-8.50016
q	-8.50241
twee	-8.50278
▁set	-8.50331
▁No	-8.50773
▁metal	-8.50808
▁award	-8.51085
term	-8.51112
▁de	-8.51579
▁Swedish	-8.51747
▁expand	-8.51849
.",	-8.51957
▁units	-8.52207
▁16	-8.52451
.3	-8.52485
▁aim	-8.52541
▁they	-8.52864
▁El	-8.53058
▁Business	-8.53369
uukki	-8.53421
▁fund	-8.53454
▁New	-8.53504
▁costs	-8.53637
nel	-8.53731
▁UK	-8.53787
ware	-8.53855
U	-8.54037
▁won	-8.54074
J	-8.54223
▁0.3	-8.54412
▁week	-8.54744
▁addition	-8.55174
▁orders	-8.55354
▁years	-8.55464
▁hit	-8.55468
▁improve	-8.55591
▁full	-8.55626
▁follow	-8.55963
▁represent	-8.55965
▁200	-8.55968
▁program	-8.56062
▁director	-8.56077
▁Media	-8.56084
▁tra	-8.56652
▁Tal	-8.56713
▁mill	-8.56726
▁need	-8.56777
▁you	-8.56925
▁tax	-8.56986
ar	-8.5735
▁international	-8.57463
as	-8.57955
▁To	-8.58137
▁Re	-8.58228
▁H	-8.58297
▁lay	-8.58371
ffic	-8.58557
▁account	-8.58741
▁already	-8.58742
▁whole	-8.58802
▁situat	-8.58829
▁Bas	-8.58843
▁grow	-8.58876
Man	-8.58883
▁pay	-8.5897
▁perform	-8.59008
▁x	-8.59117
ma	-8.59355
▁Jun	-8.59584
▁get	-8.59691
tion	-8.59811
▁so	-8.60384
▁t	-8.60569
▁forest	-8.60841
▁Al	-8.61096
▁results	-8.61544
SPY	-8.61598
▁again	-8.61641
▁passenger	-8.61713
▁demand	-8.61729
▁Sanoma	-8.61842
▁margin	-8.619
▁consumer	-8.61975
▁firm	-8.62054
▁partner	-8.62119
▁developer	-8.62214
As	-8.62488
▁real	-8.62623
▁these	-8.63159
At	-8.63956
▁purchase	-8.64337
▁industrial	-8.64567
▁small	-8.6458
▁range	-8.64753
▁plann	-8.64842
Z	-8.64869
▁.9	-8.64995
▁22	-8.65335
▁head	-8.65448
▁activit	-8.65651
▁fall	-8.65869
▁operator	-8.65873
posted	-8.65928
▁enable	-8.66275
▁.5	-8.66372
▁print	-8.66541
How	-8.66603
thing	-8.66978
▁23	-8.67106
fter	-8.67475
▁launch	-8.67532
▁like	-8.67607
▁chain	-8.67705
▁oil	-8.67707
▁headquarter	-8.67707
▁rate	-8.6799
os	-8.68277
▁UPM	-8.68332
▁holding	-8.68455
▁31	-8.68631
▁V	-8.68644
▁Cap	-8.68769
(	-8.69124
ea	-8.69182
▁open	-8.69262
achinery	-8.69431
ish	-8.69604
age	-8.70002
▁De	-8.70197
W	-8.70233
▁according	-8.70456
▁Tel	-8.70632
▁Europe	-8.70646
▁detail	-8.70691
▁Capital	-8.70698
▁six	-8.70806
▁raise	-8.70873
▁Kone	-8.71252
▁Ens	-8.71253
▁constructi	-8.71266
▁construct	-8.71568
▁Po	-8.71597
▁who	-8.71852
▁measure	-8.71997
It	-8.72064
▁disclose	-8.72551
at	-8.72649
▁manufacture	-8.731
▁receive	-8.73202
nen	-8.73645
▁.6	-8.73757
▁strategy	-8.73935
▁four	-8.74046
Jun	-8.74133
▁distribution	-8.74209
▁analyst	-8.74296
▁index	-8.74338
▁dropp	-8.74641
▁facilit	-8.74685
$	-8.75157
z	-8.7519
▁IT	-8.75303
▁FT	-8.7535
▁ago	-8.75497
▁rise	-8.75608
▁break	-8.76293
...	-8.76416
▁13	-8.76833
▁publish	-8.77053
man	-8.77103
▁beer	-8.77112
)	-8.77143
10	-8.77189
▁low	-8.77191
▁implement	-8.77252
▁temporar	-8.77253
▁record	-8.77261
▁income	-8.77279
▁division	-8.77379
other	-8.77453
cause	-8.77497
▁North	-8.77675
ping	-8.77846
▁Financial	-8.77963
ich	-8.78255
▁al	-8.78327
▁.1	-8.78401
quarter	-8.79082
▁hold	-8.7918
▁via	-8.79215
v	-8.79506
▁key	-8.79511
Sept	-8.79972
ton	-8.80012
▁ADP	-8.80268
▁owner	-8.80542
x	-8.80545
▁Petersburg	-8.80697
▁fixed	-8.80727
▁Exchange	-8.80769
ww	-8.80775
▁just	-8.8086
▁Report	-8.80908
▁joint	-8.80991
▁Tesco	-8.81291
ne	-8.81346
▁Stor	-8.81601
▁1.5	-8.81621
.6	-8.81981
▁hel	-8.81994
0,000	-8.82035
▁state	-8.8209
ter	-8.82219
▁invest	-8.8233
land	-8.82487
up	-8.83011
30	-8.83708
mark	-8.83765
▁Estonia	-8.83769
▁retail	-8.83815
▁1.2	-8.83906
if	-8.84217
▁Thursday	-8.84246
▁Friday	-8.84247
metic	-8.84259
▁plc	-8.84262
▁slight	-8.84279
▁decide	-8.84325
▁Euro	-8.84402
▁handl	-8.84419
▁below	-8.84458
▁worth	-8.84561
▁vot	-8.84681
ant	-8.84803
▁AstraZeneca	-8.84874
▁name	-8.84879
▁.2	-8.85017
▁decline	-8.85101
▁th	-8.85189
ive	-8.85199
▁there	-8.8537
▁structure	-8.85432
.9	-8.85743
▁members	-8.85839
▁way	-8.85948
▁Mr	-8.86164
ur	-8.86323
iskars	-8.86727
▁Ne	-8.86827
argotec	-8.87201
per	-8.87338
▁.8	-8.87882
▁respective	-8.8795
▁transport	-8.87954
▁subscription	-8.87967
▁Network	-8.87981
▁Germany	-8.88199
▁show	-8.88208
▁center	-8.88248
▁food	-8.88307
▁European	-8.88345
ompanies	-8.88368
▁machine	-8.8849
▁book	-8.88549
ous	-8.88618
▁28	-8.8876
▁Asia	-8.88783
real	-8.89443
ste	-8.89479
flow	-8.89566
▁1.1	-8.89613
▁his	-8.89769
▁agree	-8.89826
▁transfer	-8.8986
▁29	-8.89936
ential	-8.89959
▁60	-8.90214
▁Tele	-8.90433
▁site	-8.90484
▁broad	-8.90617
▁Rauta	-8.90721
te	-8.90721
▁fi	-8.90775
▁provid	-8.90894
kko	-8.90917
▁X	-8.91174
ts	-8.9139
▁change	-8.91403
▁0.8	-8.91728
▁bid	-8.91792
▁Monday	-8.91802
▁General	-8.91805
▁SEK	-8.91817
▁strengthen	-8.91832
hlstrom	-8.91834
▁cooperation	-8.91838
▁web	-8.91911
▁run	-8.91969
most	-8.92071
▁Kemi	-8.92123
▁Tue	-8.9218
▁Sampo	-8.92467
▁80	-8.92651
ight	-8.92794
▁build	-8.93239
▁bo	-8.933
into	-8.93391
ks	-8.93522
est	-8.93656
▁investors	-8.93758
▁estimates	-8.93969
DA	-8.94197
sday	-8.94265
SIN	-8.94892
▁test	-8.9497
▁And	-8.95006
ship	-8.95107
▁21	-8.95381
▁commercial	-8.95564
▁yesterday	-8.95796
▁future	-8.95796
▁decision	-8.95806
▁saving	-8.95861
▁reduction	-8.95881
▁late	-8.95992
Net	-8.96
▁Sie	-8.96056
ruukki	-8.96057
▁any	-8.96091
went	-8.96211
▁model	-8.96373
▁list	-8.96573
▁Alma	-8.96696
▁lift	-8.96937
ld	-8.96961
▁liter	-8.96997
▁Ab	-8.97107
▁With	-8.97204
▁whe	-8.97259
▁Vi	-8.9726
▁26	-8.97526
▁Technolog	-8.97545
▁propose	-8.97715
KI	-8.97727
▁calls	-8.97877
▁Market	-8.98458
he	-8.98508
▁do	-8.98694
tockmann	-8.98882
line	-8.98903
ko	-8.99531
▁27	-8.99674
▁operate	-8.99763
▁establish	-8.99821
ro	-8.99924
▁effect	-8.99946
▁warning	-9.00029
ompany	-9.00035
▁exist	-9.00198
ose	-9.00324
crane	-9.00452
▁know	-9.00485
▁su	-9.0062
▁EBIT	-9.0069
▁Long	-9.00755
▁water	-9.01239
▁i	-9.01327
data	-9.01334
▁Sale	-9.01406
▁concern	-9.01533
▁weak	-9.01549
▁reduce	-9.01626
ate	-9.01634
▁1.3	-9.01734
▁clear	-9.01804
▁control	-9.01934
▁relate	-9.02009
▁Mets	-9.02084
▁house	-9.02211
▁gre	-9.02286
na	-9.02296
▁gas	-9.02597
▁buil	-9.02971
▁0.2	-9.02983
▁Unit	-9.02995
▁cas	-9.03129
FX	-9.03411
▁'',	-9.03503
utotec	-9.03609
ily	-9.03697
▁packag	-9.03787
este	-9.03972
!	-9.04001
pped	-9.04016
▁heat	-9.04069
▁Pol	-9.0412
sh	-9.04177
▁jump	-9.0431
▁handset	-9.04316
▁technical	-9.04318
▁content	-9.04318
▁segment	-9.04328
▁restructuring	-9.04335
▁maxim	-9.04342
▁loan	-9.04511
▁takeover	-9.04561
▁five	-9.04662
Profit	-9.04705
▁bring	-9.04901
▁Buy	-9.04953
▁Barclays	-9.04959
▁''",	-9.05166
▁Ok	-9.05651
▁.4	-9.05709
▁public	-9.05769
▁securit	-9.06148
ara	-9.06153
▁Component	-9.06469
15	-9.06766
▁offering	-9.06796
▁36	-9.07225
▁upgrade	-9.07662
▁Up	-9.07711
▁region	-9.07712
▁port	-9.07738
xchange	-9.08058
Q	-9.08201
son	-9.08278
▁maint	-9.08753
ement	-9.08755
▁double	-9.08861
▁outlook	-9.08868
▁rental	-9.08873
▁strategic	-9.08893
▁recall	-9.08906
▁facilities	-9.09015
▁statement	-9.09048
mens	-9.0922
▁daily	-9.09247
▁Latvia	-9.09324
▁Trade	-9.09339
ADP	-9.09448
▁Rap	-9.09541
▁manag	-9.09565
▁Pohjola	-9.09843
▁Bio	-9.09883
▁EP	-9.09898
uri	-9.10192
13	-9.10363
bility	-9.1066
▁consider	-9.10966
side	-9.11037
▁early	-9.11078
▁ca	-9.11115
▁may	-9.11241
sold	-9.11267
▁35	-9.11557
▁stores	-9.11684
▁operati	-9.1169
led	-9.11745
▁2.7	-9.12336
ted	-9.12656
▁Suom	-9.12657
imate	-9.13134
▁Share	-9.13378
▁access	-9.13603
▁Japan	-9.13618
▁Feb	-9.13625
▁PLC	-9.13629
lands	-9.13635
▁reach	-9.13689
▁component	-9.13725
▁narrow	-9.13805
▁home	-9.13844
▁property	-9.13873
▁become	-9.13922
▁signal	-9.14016
▁SABMiller	-9.14017
▁pot	-9.14196
▁player	-9.14204
▁RT	-9.14294
▁Mari	-9.14308
hairman	-9.1433
▁vari	-9.14431
▁come	-9.14754
etwee	-9.14825
▁producer	-9.15073
et	-9.15121
▁tonn	-9.15181
▁As	-9.15281
▁3.5	-9.15444
▁few	-9.15467
▁wood	-9.15484
▁State	-9.15563
▁jobs	-9.15643
▁chart	-9.15646
▁sever	-9.16052
▁Glob	-9.16124
city	-9.1617
▁33	-9.16806
▁summ	-9.17029
ther	-9.17156
sion	-9.17263
band	-9.17314
ge	-9.17363
hit	-9.17614
▁subscribe	-9.17713
rs	-9.17852
▁Sa	-9.17887
op	-9.18034
▁India	-9.18052
cy	-9.18056
scal	-9.18287
▁90	-9.18505
▁portfolio	-9.18618
▁bridge	-9.18619
▁Internet	-9.18641
▁different	-9.18641
▁analysis	-9.18672
▁affect	-9.18682
▁team	-9.18721
▁Lithuania	-9.18817
▁pharmaceutical	-9.1882
▁improvement	-9.18857
surance	-9.18862
▁factory	-9.18878
orporation	-9.1895
own	-9.18965
▁ready	-9.1901
▁what	-9.19027
45	-9.19031
We	-9.19049
▁meeting	-9.19075
▁2.5	-9.19201
▁present	-9.19259
▁l	-9.19273
▁location	-9.19292
all	-9.19337
▁post	-9.19424
con	-9.1952
red	-9.19532
▁export	-9.19541
▁glass	-9.19699
▁0.6	-9.19763
▁Pre	-9.19838
soft	-9.20044
▁assets	-9.20146
vi	-9.20168
ta	-9.20264
de	-9.20429
▁user	-9.20544
.5	-9.20561
▁He	-9.20636
raw	-9.2095
▁Earnings	-9.21031
ility	-9.21123
▁schedule	-9.21219
ung	-9.21271
▁generate	-9.21306
offs	-9.21469
▁propert	-9.21734
▁Sal	-9.22352
news	-9.22398
▁produce	-9.22429
tria	-9.22439
▁liquid	-9.22596
▁AS	-9.22958
ether	-9.23361
▁put	-9.234
▁figure	-9.23881
▁Espoo	-9.23881
▁condition	-9.23881
▁resistance	-9.23884
▁pulp	-9.23888
▁credit	-9.23919
▁executive	-9.23919
▁chairman	-9.23953
▁70	-9.2397
▁meat	-9.24003
▁Model	-9.24083
▁boost	-9.24114
ymmene	-9.24117
▁r	-9.24191
ok	-9.24306
▁trading	-9.24389
▁far	-9.245
bn	-9.24578
wide	-9.24647
online	-9.24764
era	-9.2478
▁Glas	-9.24931
▁store	-9.24951
hief	-9.24956
▁City	-9.24972
▁sq	-9.25064
king	-9.25164
▁enter	-9.2526
▁drop	-9.25317
pu	-9.25458
▁2.2	-9.25472
▁Tikk	-9.25579
▁did	-9.25632
aki	-9.25755
▁vers	-9.25826
12	-9.25837
▁clo	-9.25895
▁UPDATE	-9.25944
▁quality	-9.26183
fair	-9.26431
ola	-9.26574
ednes	-9.26765
bought	-9.26912
AS	-9.27646
3.4	-9.2771
sche	-9.27718
▁Ti	-9.28113
▁Se	-9.28219
▁All	-9.28503
▁big	-9.28829
tandard	-9.29044
▁call	-9.29265
▁Turk	-9.29342
IA	-9.29354
Ware	-9.29434
STOCK	-9.29436
▁vessel	-9.29436
▁Communication	-9.29436
▁venture	-9.29437
NYSE	-9.29437
▁impact	-9.29437
▁Norway	-9.29439
▁entire	-9.2944
▁government	-9.29444
▁telecom	-9.29455
▁airline	-9.2946
▁watch	-9.29466
▁beginning	-9.29476
▁approval	-9.29477
li	-9.29504
viva	-9.296
▁recently	-9.29605
▁1.6	-9.2962
▁Brazil	-9.29647
▁should	-9.2966
▁publishe	-9.29739
▁life	-9.29744
▁forward	-9.29746
▁route	-9.29857
▁London	-9.29889
LD	-9.29912
▁1-	-9.29929
▁want	-9.30005
▁square	-9.30172
▁bond	-9.30201
▁clients	-9.30246
mpanies	-9.30352
▁side	-9.30489
▁wide	-9.30554
▁generat	-9.30717
ke	-9.30838
▁fish	-9.30865
ally	-9.30889
tia	-9.30908
▁Le	-9.30951
▁acquir	-9.31009
.8	-9.31095
50	-9.31161
▁direct	-9.31273
▁J	-9.3138
▁49	-9.31556
▁Tam	-9.31597
ness	-9.31661
▁bigge	-9.31665
▁0.1	-9.32013
▁bas	-9.32085
cap	-9.32121
▁Fi	-9.32251
wo	-9.32391
▁1.0	-9.32491
▁drug	-9.32498
▁responsib	-9.32514
Son	-9.32588
▁cross	-9.32606
▁24	-9.32638
▁gain	-9.32671
▁Sport	-9.32721
ons	-9.32724
▁Mos	-9.32819
..	-9.32932
ould	-9.33079
ries	-9.33104
▁expan	-9.33167
▁metre	-9.33579
▁2.3	-9.33662
ern	-9.34164
▁hand	-9.34319
▁45	-9.34714
xon	-9.34739
.4	-9.34865
▁complet	-9.34913
▁mid	-9.34919
imari	-9.35165
▁select	-9.3517
▁InBev	-9.35319
▁Norwegian	-9.35319
▁natural	-9.35319
▁video	-9.35319
▁bottom	-9.35323
▁pension	-9.35323
▁return	-9.35342
▁Research	-9.35361
▁actual	-9.35369
▁contain	-9.35375
▁bln	-9.35424
▁bounce	-9.35526
▁Lemmink	-9.3554
▁combine	-9.35574
▁combin	-9.35608
▁Sell	-9.35626
▁merger	-9.35646
▁weeks	-9.3569
▁Look	-9.3569
▁Line	-9.35816
▁par	-9.3583
▁great	-9.35843
▁resource	-9.3598
▁came	-9.36016
▁Meet	-9.36217
▁Stockholm	-9.36327
▁0.	-9.36348
▁Ma	-9.36419
▁environmental	-9.36425
ALE	-9.36494
▁La	-9.36517
▁Jan	-9.36614
bas	-9.36674
ri	-9.36774
▁manager	-9.36829
▁2.0	-9.36931
▁4.5	-9.36936
▁An	-9.36942
HEL	-9.36978
ll	-9.37228
Both	-9.37353
▁d	-9.37436
▁am	-9.37835
▁5.5	-9.37879
▁expert	-9.37976
▁Compan	-9.38074
▁top	-9.3809
▁date	-9.38096
AND	-9.38166
▁du	-9.38261
▁Solutions	-9.38274
by	-9.38311
dded	-9.38569
▁Ital	-9.38782
▁Franc	-9.38956
25	-9.39187
700	-9.39268
one	-9.39299
▁Pa	-9.39385
HP	-9.39405
off	-9.3943
▁HK	-9.39444
ated	-9.39649
▁sli	-9.39663
▁Sol	-9.39927
debt	-9.39929
▁pro	-9.40175
▁.7	-9.40242
▁produc	-9.40251
▁Inter	-9.40312
res	-9.40317
▁lo	-9.4089
US	-9.40932
So	-9.40934
▁Li	-9.40938
▁increas	-9.41013
ise	-9.41051
▁Tek	-9.41149
▁0.4	-9.41191
▁South	-9.41223
BB	-9.41416
▁install	-9.4149
▁best	-9.41499
▁Czech	-9.41569
▁domestic	-9.41569
▁newspaper	-9.41569
NFLX	-9.4157
▁method	-9.41581
▁competitive	-9.41582
▁Insurance	-9.41645
▁installation	-9.41662
▁Investment	-9.41825
▁2,	-9.41897
7.8	-9.41922
▁Royal	-9.42081
▁bullish	-9.42083
▁Life	-9.42083
▁serve	-9.42219
▁Mobile	-9.42305
▁Thom	-9.42415
▁Paper	-9.42565
▁Manag	-9.42586
▁import	-9.42701
elecommunication	-9.43212
ANG	-9.43229
For	-9.43539
cow	-9.43544
▁final	-9.43669
ption	-9.43719
▁5.1	-9.43756
state	-9.43773
▁action	-9.43794
Follow	-9.43966
country	-9.43982
▁RE	-9.44039
29	-9.44065
taa	-9.44072
▁developing	-9.44172
▁12-	-9.44412
entum	-9.44496
der	-9.44623
▁continues	-9.44674
▁Raisi	-9.44885
▁gains	-9.44961
ors	-9.45093
▁Solution	-9.45234
▁.0	-9.45766
ix	-9.45883
ood	-9.46348
▁estimat	-9.46419
▁Raut	-9.46539
▁Bo	-9.46856
16	-9.46935
▁Markets	-9.47344
▁importan	-9.47429
AT	-9.47436
frastructure	-9.4745
▁crane	-9.47509
ten	-9.47512
▁Profit	-9.47651
▁bot	-9.47669
▁special	-9.47671
nnual	-9.47753
ian	-9.47778
▁Cram	-9.47788
▁appoint	-9.48077
▁electric	-9.48113
SBUX	-9.48236
▁Division	-9.48239
▁Dividend	-9.48243
▁logistic	-9.48244
▁Kyro	-9.48253
▁money	-9.48275
▁chief	-9.48297
▁Oct	-9.48312
▁flight	-9.48318
LEA	-9.48339
▁general	-9.48369
RY	-9.4837
▁private	-9.48389
▁Tallinn	-9.48439
▁wire	-9.48449
▁Africa	-9.48477
▁Huhtam	-9.48477
▁Retail	-9.48479
▁even	-9.48486
▁allow	-9.48524
▁breakout	-9.48545
▁Gold	-9.48577
▁gr	-9.48625
▁Construction	-9.48665
▁NASDAQ	-9.4877
▁chemical	-9.48772
▁factor	-9.48832
▁Da	-9.48888
▁carrier	-9.48942
▁found	-9.48948
▁register	-9.49024
▁drive	-9.49038
▁carrie	-9.49068
▁sports	-9.49142
ap	-9.49271
tter	-9.494
▁shopp	-9.49426
▁broker	-9.49467
▁Upon	-9.495
▁worker	-9.49529
▁press	-9.49596
▁fully	-9.49739
AL	-9.49846
▁trend	-9.49913
▁Ak	-9.49997
/1	-9.49998
▁Fortu	-9.50258
▁EU	-9.50313
agazine	-9.50449
▁air	-9.50624
▁ga	-9.50714
▁ground	-9.50766
time	-9.50894
ki	-9.51148
ka	-9.51207
!,	-9.51254
▁1.7	-9.51266
▁consist	-9.51276
lisa	-9.51288
partment	-9.51332
▁Ju	-9.51393
no	-9.51503
2007	-9.51518
▁transferr	-9.51773
▁Vaa	-9.51813
aking	-9.51921
▁Ou	-9.52034
▁Ram	-9.52083
4.0	-9.52299
▁0.5	-9.52316
▁job	-9.52384
the	-9.52393
▁car	-9.52505
▁investor	-9.52525
ol	-9.52549
On	-9.52868
▁changes	-9.53535
nce	-9.53645
RI	-9.5379
▁lines	-9.54095
▁Out	-9.54243
▁load	-9.54704
▁Manage	-9.54753
▁sol	-9.54811
nne	-9.55007
▁talk	-9.55072
cargo	-9.55201
▁Chartered	-9.55379
▁recent	-9.55389
▁equity	-9.55448
tain	-9.55509
▁yet	-9.55515
▁inter	-9.55533
▁keep	-9.55622
▁function	-9.55624
▁organization	-9.55624
▁Affecto	-9.55634
▁Shell	-9.55635
▁Holding	-9.55719
▁later	-9.55749
old	-9.55773
▁stocks	-9.55943
▁space	-9.55945
bank	-9.5611
▁experience	-9.56114
▁size	-9.56181
▁Micro	-9.56266
▁Apple	-9.56591
▁Di	-9.56627
▁retailer	-9.56663
▁Digi	-9.56716
▁news	-9.56784
each	-9.56841
▁station	-9.56884
▁pa	-9.56885
onstruction	-9.56945
.2	-9.56956
▁profile	-9.56998
▁Cash	-9.56999
hire	-9.57036
lu	-9.57179
TR	-9.57214
▁Companies	-9.57224
OR	-9.57238
▁create	-9.57244
ble	-9.57457
▁Fin	-9.57638
▁Systems	-9.57686
▁tool	-9.57696
▁Kesk	-9.57703
▁days	-9.5779
▁member	-9.57814
ough	-9.57996
▁type	-9.58023
Under	-9.58138
▁forecasts	-9.58257
Nokia	-9.58298
▁efficienc	-9.58514
ior	-9.58578
nia	-9.58687
With	-9.58792
▁+35	-9.58906
▁Securit	-9.58987
ions	-9.59017
▁SE	-9.59183
▁form	-9.59279
Operati	-9.59377
▁clos	-9.5942
▁please	-9.59514
▁central	-9.5954
▁selling	-9.59614
onen	-9.59759
▁h	-9.59829
uring	-9.59863
▁think	-9.59906
▁Dat	-9.59996
▁Dil	-9.59996
07	-9.60035
▁forecast	-9.60058
▁Th	-9.60439
▁Nor	-9.60495
▁leas	-9.6072
▁fine	-9.60748
6.1	-9.6109
▁Mus	-9.61303
▁approve	-9.61384
ET	-9.61532
▁EB	-9.61548
▁Van	-9.61591
▁environment	-9.6163
Secur	-9.61754
35	-9.61784
▁150	-9.61937
cal	-9.62173
ex	-9.62354
▁Mo	-9.62448
Wh	-9.62472
▁Electronic	-9.6307
AMZN	-9.63071
▁balance	-9.63072
▁brewer	-9.63076
▁phase	-9.63078
▁consolidate	-9.63083
▁morning	-9.63083
▁recommendation	-9.63089
▁safe	-9.6309
▁Short	-9.63103
▁find	-9.63149
▁nice	-9.63151
▁kroon	-9.63158
▁court	-9.63199
▁Sam	-9.63202
▁study	-9.63219
▁advance	-9.63331
▁NOK	-9.6334
▁Morris	-9.63354
SL	-9.63357
▁2003	-9.63381
▁comprise	-9.63389
▁every	-9.63412
▁"@	-9.63462
ium	-9.63511
▁0.9	-9.63533
▁involve	-9.63621
▁Street	-9.63695
▁Deal	-9.63726
▁field	-9.63728
▁announcement	-9.63778
▁voice	-9.63786
▁treatment	-9.64049
KO	-9.64105
▁Ha	-9.64158
▁light	-9.64164
lvi	-9.64187
▁saw	-9.64289
▁AG	-9.64465
oth	-9.64498
▁Indian	-9.64625
▁Will	-9.64662
▁OY	-9.64776
berg	-9.64782
rvi	-9.64807
lines	-9.64812
hto	-9.6495
▁mak	-9.64958
EXC	-9.64991
▁waste	-9.65015
ash	-9.65102
27	-9.65142
▁55	-9.65144
11	-9.65343
ese	-9.65468
▁active	-9.6548
view	-9.65653
▁San	-9.65779
▁increasing	-9.65794
▁say	-9.66026
than	-9.66117
icon	-9.6628
stan	-9.66329
▁3.6	-9.6679
ct	-9.668
ab	-9.66987
▁slow	-9.67157
300	-9.67287
▁coming	-9.67316
40	-9.6752
EUR	-9.6763
▁g	-9.67708
taja	-9.67935
▁4.1	-9.68707
3.0	-9.69014
ought	-9.69049
▁win	-9.69137
23	-9.6918
ud	-9.6924
of	-9.69285
ration	-9.69323
17	-9.69382
ila	-9.69698
▁view	-9.69755
▁BP	-9.69834
00,000	-9.70003
elia	-9.70179
ni	-9.70209
▁develope	-9.7021
be	-9.7031
▁consum	-9.70317
▁accord	-9.70506
Bas	-9.70541
stone	-9.70666
▁train	-9.70769
mo	-9.70978
▁lit	-9.71047
rent	-9.71165
▁require	-9.71281
▁38	-9.71318
YHOO	-9.71404
Wartsila	-9.71404
▁Ilkka	-9.71404
▁John	-9.71404
▁wafer	-9.71405
▁computer	-9.71407
▁naviga	-9.71407
▁platform	-9.7141
▁terminal	-9.71419
▁complex	-9.71423
▁relative	-9.71427
▁RBS	-9.71429
▁output	-9.71429
koski	-9.71438
▁track	-9.7144
sed	-9.71516
ign	-9.71667
▁pick	-9.7168
▁Glencore	-9.71695
▁sheet	-9.71709
▁effective	-9.71732
▁financing	-9.71754
▁specialis	-9.71803
▁fiber	-9.71824
▁payment	-9.71826
▁green	-9.71845
▁3-	-9.71879
noja	-9.71963
▁hard	-9.72095
▁Kar	-9.72104
▁4.7	-9.72114
▁does	-9.72123
▁Bene	-9.72143
▁Shire	-9.72151
▁likely	-9.72294
▁conduct	-9.7239
▁Product	-9.72438
▁Sea	-9.72492
▁32	-9.72502
▁Ru	-9.72556
▁LSE	-9.72681
▁BG	-9.72755
ible	-9.72819
▁relat	-9.72896
▁currenc	-9.7292
▁Pon	-9.72947
▁Regist	-9.72958
▁fuel	-9.72968
xecutive	-9.72993
CT	-9.73021
▁charger	-9.73039
▁8.3	-9.73147
▁48	-9.73155
▁Pharmaceuticals	-9.73186
▁Estonian	-9.73237
BV	-9.73289
▁43	-9.73296
▁comments	-9.73302
▁park	-9.73332
ast	-9.73446
▁consult	-9.73475
▁Mat	-9.73524
Co	-9.73531
Pre	-9.73724
▁1.4	-9.73811
▁digit	-9.74171
▁primar	-9.74208
▁Juha	-9.74247
▁3.8	-9.74325
▁seat	-9.74358
▁got	-9.74379
▁push	-9.74383
VR	-9.74469
▁Orio	-9.74683
▁cancel	-9.74854
▁br	-9.7501
▁rating	-9.75444
▁2.4	-9.75577
▁Compt	-9.75738
▁cars	-9.75746
epublic	-9.75811
▁di	-9.75819
▁...,	-9.75948
▁them	-9.75983
▁3.1	-9.76054
Earnings	-9.76171
▁begin	-9.7662
ti	-9.76737
▁authorit	-9.76786
6.4	-9.76801
▁shorts	-9.77062
lo	-9.77207
tors	-9.77273
ew	-9.77299
▁11.	-9.77334
nance	-9.77567
▁buying	-9.77584
61	-9.77653
▁For	-9.77766
▁Ka	-9.77828
▁face	-9.77868
ped	-9.77893
▁Kal	-9.78157
okum	-9.78302
▁So	-9.78362
▁los	-9.78498
MU	-9.78545
Scan	-9.78749
▁efficien	-9.78804
▁wi	-9.78869
▁lease	-9.78948
...,	-9.79018
▁secure	-9.7907
▁hous	-9.79089
long	-9.79231
ities	-9.79388
▁Ba	-9.79531
▁Food	-9.79566
ication	-9.79625
▁join	-9.79645
▁guid	-9.79699
▁sil	-9.79709
SH	-9.79848
▁bee	-9.79887
▁multi	-9.79889
26	-9.79989
▁locate	-9.80473
▁achieve	-9.80495
▁similar	-9.80495
▁rapid	-9.80495
▁explain	-9.80495
▁approach	-9.80497
▁particular	-9.80499
▁zone	-9.805
▁travel	-9.80504
▁Jyva	-9.80513
▁interim	-9.80515
▁elevator	-9.80519
▁Belgi	-9.80552
▁setup	-9.80554
▁arrangement	-9.80584
▁proposal	-9.80602
▁ahead	-9.80655
▁Stone	-9.80663
▁Brit	-9.80696
▁seven	-9.80706
▁Den	-9.80719
▁2012	-9.80799
▁basis	-9.80836
▁average	-9.80846
▁update	-9.80861
▁finance	-9.80898
▁Mail	-9.80911
▁connection	-9.80947
▁former	-9.80953
▁spr	-9.80992
▁dip	-9.81077
EM	-9.81103
elf	-9.81153
▁Telecom	-9.81169
▁Amer	-9.81178
DON	-9.81182
▁You	-9.81265
▁Te	-9.81409
▁electrical	-9.81454
▁Port	-9.81469
▁means	-9.81615
KS	-9.81766
▁national	-9.81796
pe	-9.81957
▁Me	-9.81988
▁sum	-9.82251
fon	-9.82262
▁Aviva	-9.82264
▁personal	-9.82278
▁play	-9.82285
▁charg	-9.82356
▁5.2	-9.82367
▁fail	-9.82448
mong	-9.82518
▁AC	-9.8254
skyla	-9.82603
▁Web	-9.82625
▁old	-9.82628
Sale	-9.82629
▁quit	-9.82762
▁Pan	-9.82767
▁administrat	-9.82791
Compar	-9.82813
▁ratio	-9.82855
ker	-9.82875
▁redu	-9.83007
▁7.2	-9.83121
7.1	-9.8313
▁Store	-9.83264
▁Pe	-9.83267
▁presen	-9.83315
▁premi	-9.83456
Cap	-9.83457
▁invoice	-9.83461
▁2.6	-9.83656
▁Z	-9.83728
poli	-9.83772
▁Val	-9.83918
▁ensur	-9.84291
market	-9.84491
ized	-9.84594
3.9	-9.8461
RT	-9.84793
change	-9.84796
▁industri	-9.85074
group	-9.85317
▁sh	-9.85317
▁compa	-9.85578
ft	-9.85763
nts	-9.85936
Swedish	-9.86052
more	-9.86149
quality	-9.86163
▁Hu	-9.86164
cast	-9.8621
ling	-9.86256
phone	-9.86258
cross	-9.86498
plan	-9.86826
CE	-9.8693
▁Mar	-9.8702
▁o	-9.87024
▁ferr	-9.87299
▁sw	-9.87332
end	-9.8737
▁System	-9.87462
▁46	-9.87669
▁Pat	-9.87711
▁flexibl	-9.87765
Also	-9.8784
▁asset	-9.8798
nstruction	-9.88219
corp	-9.88524
▁57	-9.88568
tel	-9.8861
46	-9.8884
▁stor	-9.89011
▁nic	-9.89053
ral	-9.89308
▁Do	-9.89459
▁Lat	-9.89862
▁Ex	-9.89876
site	-9.899
▁ten	-9.89932
▁lows	-9.89938
▁force	-9.89952
many	-9.90111
3.7	-9.90147
▁extend	-9.90207
201	-9.90296
▁Office	-9.90313
▁shop	-9.90368
70	-9.90441
GOOG	-9.90464
▁extreme	-9.90495
▁institution	-9.90495
▁problem	-9.90495
▁sawmill	-9.90495
▁laborator	-9.90496
▁quick	-9.90496
▁Contract	-9.90496
▁pattern	-9.90496
Yhtym	-9.90498
▁downgrade	-9.90499
▁representative	-9.90501
▁Sachs	-9.9051
▁smartphone	-9.90516
▁enterprise	-9.90519
▁commitment	-9.90524
1.8	-9.90527
▁expenses	-9.90553
▁review	-9.90573
▁divestment	-9.9058
▁Hong	-9.90641
▁com	-9.90682
▁4.6	-9.90693
▁Vice	-9.90701
▁reject	-9.90703
▁Fund	-9.90704
▁tough	-9.90716
▁moving	-9.90757
▁Union	-9.9078
▁measurement	-9.9083
▁recover	-9.90843
▁frame	-9.90903
▁Today	-9.90918
▁notice	-9.90935
▁EMS	-9.90952
▁free	-9.90958
▁eight	-9.9101
▁Teh	-9.9101
▁sha	-9.91045
▁Matti	-9.91092
redit	-9.91109
▁bench	-9.91137
RS	-9.91145
ational	-9.9115
▁litt	-9.91196
▁47	-9.91202
▁speed	-9.91218
▁Is	-9.9123
▁199	-9.91303
▁Act	-9.91335
anufactur	-9.91431
▁4.9	-9.91535
▁10,000	-9.91536
▁0.0	-9.91636
▁matter	-9.91732
▁integrat	-9.91757
▁Press	-9.91776
mail	-9.91794
▁Ber	-9.91799
8.4	-9.9194
RSI	-9.9196
▁5.9	-9.92089
▁larger	-9.92139
▁12.7	-9.92208
▁Honka	-9.92223
ice	-9.92299
search	-9.92445
▁VA	-9.92572
low	-9.92579
▁bad	-9.92607
ai	-9.92613
▁65	-9.92735
ING	-9.92813
utis	-9.92862
▁9.4	-9.92874
2.3	-9.92897
1.2	-9.92942
ittal	-9.93017
▁moment	-9.9312
▁game	-9.93361
▁9.7	-9.93371
▁Lu	-9.93467
vens	-9.93478
▁introduce	-9.93503
RA	-9.93722
▁hope	-9.93729
iv	-9.93744
▁breaking	-9.93778
3.6	-9.93953
66	-9.93972
▁road	-9.9399
▁1,0	-9.94022
SK	-9.94261
Hz	-9.94282
ring	-9.9432
▁poor	-9.94432
BA	-9.94465
500	-9.94478
ned	-9.94486
▁Tesla	-9.9455
ver	-9.94622
▁MW	-9.94687
▁cap	-9.94807
mar	-9.94815
▁Be	-9.94845
▁leader	-9.94871
ward	-9.94939
rike	-9.94951
corporate	-9.9502
▁On	-9.95108
▁Sav	-9.9513
tory	-9.95489
▁OP	-9.95544
▁ore	-9.95594
▁tel	-9.95747
To	-9.95882
4,	-9.96035
▁let	-9.96074
▁3.3	-9.96107
ress	-9.96172
work	-9.96205
▁Ve	-9.96285
.1	-9.96424
back	-9.96427
ba	-9.96478
ago	-9.96666
6.9	-9.96762
ties	-9.96933
▁participate	-9.96988
If	-9.9707
board	-9.97157
▁la	-9.97162
UPDATE	-9.9726
Tesla	-9.97277
▁lot	-9.97286
wood	-9.97391
▁fle	-9.9742
▁250	-9.97528
CS	-9.9755
Current	-9.97632
▁ma	-9.97689
od	-9.97762
down	-9.9778
Of	-9.97901
▁Both	-9.97977
tive	-9.98033
▁37	-9.9808
new	-9.98097
▁Tik	-9.98107
▁send	-9.98114
hall	-9.98116
3.2	-9.98393
▁issu	-9.98441
Be	-9.98443
han	-9.98508
live	-9.98576
▁Tul	-9.98761
▁declin	-9.98895
▁bull	-9.99091
▁AT	-9.99162
.7	-9.99188
▁Spo	-9.9951
▁south	-9.99676
lation	-9.99743
▁separate	-9.99767
ber	-9.99852
19	-9.99923
▁mark	-10.0001
▁se	-10.0017
dnes	-10.0023
core	-10.0026
▁categor	-10.0032
▁en	-10.0033
▁gro	-10.0034
▁floor	-10.004
▁Work	-10.0047
▁source	-10.0062
▁sto	-10.0066
▁correspond	-10.0067
ha	-10.0073
io	-10.0079
ful	-10.0108
▁Cen	-10.0109
▁engine	-10.0118
▁compris	-10.0118
▁administrati	-10.0126
▁min	-10.0148
cor	-10.0151
▁Australia	-10.0161
▁Kazakh	-10.0161
▁Scandinavia	-10.0161
▁circuit	-10.0161
▁opportunit	-10.0161
▁iPhone	-10.0161
▁Mexic	-10.0161
▁contact	-10.0161
▁textile	-10.0161
▁MACD	-10.0161
▁conclude	-10.0161
▁Process	-10.0161
▁document	-10.0161
▁blue	-10.0161
▁surprise	-10.0161
▁prospect	-10.0161
▁Christ	-10.0161
▁science	-10.0161
▁trouble	-10.0161
▁dollar	-10.0161
▁reorganisation	-10.0161
▁certain	-10.0162
▁threat	-10.0162
▁subject	-10.0162
▁Billion	-10.0163
QQQ	-10.0164
▁Small	-10.0164
GOOGL	-10.0164
▁hotel	-10.0165
▁Industrial	-10.0165
▁Canada	-10.0165
▁sustainab	-10.0166
▁expectations	-10.0167
▁risk	-10.0167
▁running	-10.0168
▁economy	-10.0169
▁disappoint	-10.017
▁single	-10.017
▁Analyst	-10.017
▁Kong	-10.0174
▁Estate	-10.0175
▁grant	-10.0176
▁confirmed	-10.0177
▁East	-10.0177
▁carry	-10.0178
▁supplie	-10.0182
▁medical	-10.0184
▁consolidation	-10.0185
ONE	-10.0185
▁upside	-10.0188
▁STO	-10.0188
▁profitab	-10.0189
▁initial	-10.019
uld	-10.019
▁participa	-10.0191
▁quote	-10.0192
3.5	-10.0192
▁paint	-10.0193
▁chose	-10.0194
▁Uk	-10.0195
▁inventor	-10.0195
▁Korea	-10.0198
▁consolidat	-10.0199
▁Water	-10.0199
▁tomorrow	-10.02
▁Digital	-10.0201
▁Kaup	-10.0201
▁flag	-10.0205
▁pop	-10.0208
EEK	-10.0211
nding	-10.0216
▁cause	-10.0218
am	-10.0218
mb	-10.022
▁iron	-10.0228
ternet	-10.0231
utch	-10.0232
▁establishe	-10.0236
▁capabilit	-10.0238
▁ski	-10.0241
versu	-10.0245
▁Wh	-10.0248
▁soon	-10.0249
eg	-10.025
▁channel	-10.025
▁weekly	-10.0258
▁TV	-10.0264
▁longer	-10.0276
Daily	-10.0281
▁11.8	-10.0287
▁event	-10.0314
▁positions	-10.0321
▁Pul	-10.0328
GI	-10.034
2.4	-10.0343
▁stream	-10.0344
ommission	-10.036
▁7.3	-10.0365
▁stay	-10.0366
mi	-10.037
▁Ett	-10.0373
▁intend	-10.0373
ns	-10.0382
min	-10.0382
▁600	-10.0396
nera	-10.0405
iture	-10.0408
▁Real	-10.0427
▁...	-10.043
mas	-10.0432
▁2.8	-10.0434
▁7.4	-10.0443
▁refin	-10.0485
6.6	-10.0487
60	-10.0508
▁slide	-10.0509
▁Revenue	-10.0511
▁roll	-10.0512
▁falling	-10.0527
GS	-10.0534
▁vice	-10.0545
▁creat	-10.055
▁sole	-10.0552
▁possibl	-10.0553
▁Lassi	-10.0558
een	-10.0566
▁Over	-10.0571
▁One	-10.058
nt	-10.0583
hen	-10.0586
▁63	-10.0602
stock	-10.0604
▁lett	-10.0607
▁locat	-10.0615
▁140	-10.0619
▁rest	-10.0622
▁wind	-10.0627
▁61	-10.0638
atch	-10.0643
ina	-10.0643
▁ab	-10.0645
solid	-10.0668
pes	-10.0673
▁finish	-10.0679
kel	-10.0693
32	-10.0693
rake	-10.0695
80	-10.07
Finland	-10.0701
▁Min	-10.0709
tra	-10.0718
2.6	-10.0723
▁recycl	-10.0726
▁Dans	-10.073
43	-10.0748
▁Ra	-10.0754
im	-10.0774
▁Vo	-10.0777
86	-10.0785
fi	-10.0807
▁Comp	-10.0807
ulf	-10.0818
▁11.4	-10.0825
any	-10.0839
▁ice	-10.084
▁technologi	-10.0853
▁Har	-10.0868
▁care	-10.0868
▁120	-10.0873
▁Suomi	-10.088
ulu	-10.0889
▁Gri	-10.0891
▁po	-10.0911
1.6	-10.0917
gen	-10.0934
▁n	-10.0952
▁automat	-10.0966
▁Centr	-10.0967
▁disclos	-10.0969
RV	-10.0969
da	-10.0984
ground	-10.0986
▁10.	-10.1005
ine	-10.1006
▁Nas	-10.1013
▁Don	-10.1015
▁Outo	-10.1017
Ex	-10.1025
33	-10.1034
▁5.3	-10.1035
table	-10.105
sse	-10.1053
ier	-10.1055
▁Build	-10.1057
burg	-10.106
ess	-10.106
▁licens	-10.1108
▁rival	-10.1116
▁pric	-10.1121
▁sen	-10.1124
nda	-10.1129
65	-10.1171
▁sp	-10.1176
▁dis	-10.1177
▁6.	-10.1199
▁cons	-10.1208
▁COM	-10.1208
▁prefer	-10.1209
▁comment	-10.1216
▁merge	-10.1245
▁42	-10.1248
▁controlle	-10.1249
▁format	-10.125
▁advertis	-10.1263
▁4.3	-10.1269
nam	-10.1289
3.1	-10.1312
va	-10.1319
▁meet	-10.1332
▁Special	-10.1342
ad	-10.1345
ite	-10.1348
▁falls	-10.1351
tal	-10.1353
will	-10.1355
09	-10.1359
rn	-10.1383
ck	-10.1388
▁Salo	-10.1391
TW	-10.1405
▁divide	-10.1407
▁divest	-10.141
▁individual	-10.1411
Google	-10.1411
▁calculate	-10.1411
▁expenditure	-10.1411
▁immediate	-10.1411
▁recognize	-10.1411
▁reiterate	-10.1411
▁welcome	-10.1411
▁Austria	-10.1411
▁deploy	-10.1411
▁York	-10.1411
ENDP	-10.1411
▁Morgan	-10.1411
▁vendor	-10.1411
▁extensive	-10.1411
▁Spain	-10.1411
▁Window	-10.1411
▁extension	-10.1411
▁kilomet	-10.1412
▁favor	-10.1412
▁HOD	-10.1412
aapl	-10.1412
▁Breakout	-10.1412
Further	-10.1412
▁QPR	-10.1412
▁attract	-10.1413
▁color	-10.1413
▁excess	-10.1413
▁fears	-10.1414
▁modern	-10.1414
▁block	-10.1415
▁tender	-10.1415
▁Oriola	-10.1416
▁slump	-10.1416
▁IPO	-10.1417
▁reason	-10.1418
▁independent	-10.1418
/2	-10.1418
▁cancer	-10.142
▁Partner	-10.1422
▁happen	-10.1422
▁Power	-10.1422
▁warehous	-10.1425
▁feed	-10.1426
IWM	-10.143
▁59	-10.1433
▁association	-10.1433
▁gap	-10.1435
IC	-10.1435
▁75	-10.1435
▁percentage	-10.1436
▁Officer	-10.1437
sa	-10.1438
▁spokes	-10.1439
▁clean	-10.1439
▁alumin	-10.1445
▁Energ	-10.1445
ATION	-10.1446
LLC	-10.1447
▁cell	-10.1448
▁step	-10.1449
▁consultan	-10.145
▁World	-10.1452
▁highs	-10.1458
▁entry	-10.1458
▁Hall	-10.1459
ide	-10.1459
▁closure	-10.1461
▁500	-10.1461
ley	-10.1461
▁Home	-10.1467
▁Kari	-10.147
▁eye	-10.1472
▁section	-10.1475
▁Ship	-10.1478
▁stage	-10.1479
ating	-10.1481
TLT	-10.1487
▁protect	-10.1487
FT	-10.1493
CFO	-10.151
▁patent	-10.1513
▁Centre	-10.1513
istribution	-10.1514
▁mechanic	-10.1516
▁Engineer	-10.1517
▁serv	-10.1518
GO	-10.1521
▁7.5	-10.1521
▁Citi	-10.1521
ator	-10.1525
▁Easter	-10.1529
▁Brand	-10.153
▁refiner	-10.1539
TX	-10.154
hore	-10.1541
ef	-10.1545
▁away	-10.1549
▁Well	-10.1556
▁check	-10.156
▁Industr	-10.1567
MO	-10.1568
▁improv	-10.157
utu	-10.1571
▁Tecnomen	-10.1573
▁Price	-10.1577
sk	-10.1582
▁vehicles	-10.1605
esearch	-10.1605
4.2	-10.1608
▁sub	-10.1609
▁Sepp	-10.1613
▁Chin	-10.1613
▁mine	-10.1614
KD	-10.1617
▁equi	-10.1618
▁Air	-10.1619
▁ID	-10.162
▁Tim	-10.1625
▁sc	-10.1634
▁2006-	-10.1641
▁vote	-10.1642
▁Par	-10.1647
▁5.4	-10.1657
OSS	-10.1658
▁8.6	-10.1671
ncorp	-10.1674
so	-10.1678
▁More	-10.169
uokat	-10.1702
▁Plan	-10.1706
relate	-10.172
cial	-10.1723
▁Rag	-10.173
▁Lo	-10.1732
ure	-10.1733
its	-10.1739
▁buyer	-10.1744
▁Britain	-10.175
▁ex	-10.1756
Thi	-10.1767
/3	-10.1778
▁2.9	-10.1791
ey	-10.1794
AV	-10.1794
▁Minist	-10.1805
ents	-10.1807
▁Not	-10.1812
emi	-10.1823
▁prepa	-10.1843
net	-10.1846
ster	-10.1847
▁Wi	-10.1847
22	-10.1852
nternational	-10.1854
cent	-10.1856
▁ratings	-10.1868
▁distribute	-10.1877
▁Metsa	-10.1877
▁slip	-10.1881
▁handle	-10.1884
ela	-10.1896
▁north	-10.1898
▁touch	-10.19
▁commission	-10.1905
▁Uni	-10.1916
tree	-10.1917
ory	-10.1956
▁6.5	-10.1976
▁Of	-10.1989
▁1.9	-10.1999
▁renew	-10.2003
900	-10.2008
raine	-10.2009
TS	-10.2025
pite	-10.2026
ca	-10.2027
▁Rating	-10.2037
EX	-10.2044
ture	-10.2044
chart	-10.2059
▁suit	-10.2063
vo	-10.2079
9.1	-10.2084
▁VM	-10.2089
▁note	-10.2094
▁schedul	-10.2098
LK	-10.2102
▁lea	-10.2106
operation	-10.2106
▁rail	-10.2111
▁Hol	-10.2116
▁Mon	-10.2126
ya	-10.2133
ning	-10.2133
▁Govern	-10.2135
▁le	-10.2153
There	-10.2161
▁39	-10.2165
▁ro	-10.2171
▁measur	-10.2175
73	-10.2176
▁Mor	-10.2179
▁tests	-10.2185
▁9.8	-10.2185
▁card	-10.2189
▁she	-10.219
▁67	-10.219
▁ne	-10.2196
08	-10.2229
▁reserve	-10.2274
Found	-10.2282
▁1,1	-10.2288
DX	-10.2292
▁Ho	-10.2304
house	-10.2307
ailway	-10.2315
LV	-10.2318
clear	-10.2318
link	-10.2323
▁charge	-10.2334
Las	-10.234
expected	-10.235
▁Ri	-10.2358
March	-10.2365
go	-10.2366
91	-10.2379
▁41	-10.2395
▁bio	-10.2395
▁indicate	-10.2398
Revenue	-10.24
owns	-10.2403
can	-10.2406
nish	-10.2409
▁Near	-10.2421
SA	-10.2433
broad	-10.2441
ppl	-10.2448
den	-10.2451
▁histor	-10.2451
2010	-10.2455
""	-10.2467
CL	-10.2472
Ope	-10.248
aster	-10.2481
69	-10.2484
ody	-10.2489
▁Main	-10.251
▁hear	-10.2512
▁surge	-10.2522
tech	-10.2526
▁red	-10.2528
room	-10.2531
▁Pharmaceutical	-10.2532
ied	-10.2564
▁130	-10.2572
star	-10.2575
ig	-10.2575
-1	-10.2612
▁collect	-10.262
▁Kir	-10.2621
▁Bu	-10.2629
oftware	-10.2671
▁gettin	-10.2712
78	-10.2721
▁Auto	-10.273
▁prepar	-10.2735
▁-1	-10.2737
05	-10.2745
▁bi	-10.2752
▁85	-10.276
▁slid	-10.276
▁vi	-10.2763
▁prop	-10.2785
▁Yar	-10.2789
MI	-10.2793
),	-10.2801
By	-10.2802
▁adjust	-10.2816
AB	-10.2834
▁competiti	-10.2838
Facebook	-10.2839
▁Baxalta	-10.2839
▁GyPSii	-10.2839
▁Limited	-10.2839
▁anticipate	-10.2839
▁exercis	-10.2839
▁territor	-10.2839
▁reflect	-10.2839
▁Chemical	-10.2839
▁Billiton	-10.2839
▁concept	-10.2839
▁zinc	-10.2839
▁normal	-10.2839
▁rumor	-10.2839
vuo	-10.284
▁diagnostic	-10.284
▁engage	-10.284
▁Joint	-10.284
▁repurchase	-10.284
▁truck	-10.2841
▁Romania	-10.2841
▁utility	-10.2841
▁couple	-10.2841
▁Increase	-10.2841
▁certifi	-10.2841
▁wholly	-10.2841
▁Black	-10.2842
▁Kauko	-10.2842
▁kind	-10.2843
▁weakness	-10.2843
▁MacG	-10.2843
▁hook	-10.2844
▁panel	-10.2844
▁filter	-10.2844
▁original	-10.2844
▁popular	-10.2844
hibit	-10.2845
▁steady	-10.2845
▁maintain	-10.2845
▁LTE	-10.2845
▁emission	-10.2846
ental	-10.2848
▁distributor	-10.2849
omarkk	-10.285
▁Lahti	-10.2852
▁assign	-10.2852
▁understand	-10.2853
▁principal	-10.2853
▁snow	-10.2855
▁rally	-10.2859
▁law	-10.2862
▁successful	-10.2863
1.35	-10.2865
▁tack	-10.2866
▁400,000	-10.2866
▁synerg	-10.2869
▁counter	-10.2872
▁Region	-10.2872
▁Head	-10.2875
MEN	-10.2882
▁Support	-10.2882
▁regist	-10.2884
SI	-10.2884
▁requirement	-10.2885
▁exit	-10.2885
▁Sainsbury	-10.2887
▁bearish	-10.2888
▁Growth	-10.2888
▁branch	-10.2889
▁plus	-10.289
▁vol	-10.2891
▁family	-10.2895
▁coast	-10.2905
▁favourabl	-10.2906
▁must	-10.2914
▁German	-10.2917
▁Sata	-10.2927
▁claims	-10.2932
▁256	-10.2932
▁regulator	-10.2933
▁specialist	-10.2937
how	-10.2947
▁Target	-10.2954
tch	-10.2954
les	-10.2955
▁boat	-10.2962
▁Jar	-10.2972
▁leave	-10.2973
▁tire	-10.2976
▁Mich	-10.2985
-2008	-10.2986
za	-10.2991
▁res	-10.2993
▁goal	-10.2997
▁tradition	-10.3005
▁That	-10.3005
▁stra	-10.3009
77	-10.3013
ink	-10.3015
▁LON	-10.302
MT	-10.3021
▁toward	-10.3024
▁TietoEnator	-10.3024
RP	-10.3039
▁25.1	-10.3041
8.7	-10.3043
▁...",	-10.3046
▁success	-10.3049
▁700	-10.3051
▁Tyr	-10.3064
18	-10.3086
raft	-10.3093
▁apartment	-10.3104
MA	-10.3105
ying	-10.313
▁19.2	-10.3132
▁MA	-10.3133
OS	-10.3134
▁Call	-10.3138
▁proc	-10.3142
mission	-10.315
ncy	-10.3162
cess	-10.3168
▁receiv	-10.3173
hold	-10.3178
▁900	-10.3208
banke	-10.3214
▁Sh	-10.3226
▁7.9	-10.3226
▁Hel	-10.3235
dditional	-10.3239
▁Pay	-10.3242
▁2000	-10.3242
▁15.1	-10.3245
▁II	-10.3247
▁super	-10.325
▁plate	-10.3255
▁license	-10.3255
ny	-10.3276
▁idea	-10.3283
▁Are	-10.3297
un	-10.3302
top	-10.331
▁Ca	-10.3318
els	-10.3339
▁Per	-10.3349
▁Pro	-10.3353
▁0.7	-10.3367
▁Intel	-10.3373
▁Ro	-10.3377
▁6.2	-10.3378
taking	-10.3388
sta	-10.3392
hai	-10.3392
tructure	-10.3402
▁Ni	-10.3405
▁southe	-10.3409
▁seller	-10.341
▁municipalit	-10.3422
▁enhance	-10.3433
sky	-10.3446
revious	-10.3449
▁file	-10.3458
▁appli	-10.3458
▁economi	-10.3465
kum	-10.3487
▁6.8	-10.3506
ially	-10.3508
▁enabl	-10.3517
72	-10.3523
▁8.7	-10.3523
8.5	-10.3549
ot	-10.3552
Via	-10.3554
ically	-10.3563
▁workfor	-10.3565
▁Peter	-10.3575
uan	-10.3576
▁bear	-10.3577
▁300	-10.3602
XL	-10.3606
ade	-10.3612
▁Gr	-10.3626
▁Var	-10.3641
ivi	-10.3646
....	-10.3646
▁audi	-10.3659
▁ob	-10.3659
▁sta	-10.3671
▁esta	-10.3686
▁39.	-10.3688
ho	-10.3693
ard	-10.3702
▁composit	-10.3712
▁Raa	-10.3715
fth	-10.3727
imal	-10.3731
6.5	-10.3741
RM	-10.376
appi	-10.3779
itycon	-10.3813
97	-10.3816
MC	-10.3824
▁charts	-10.3834
▁Non	-10.3836
ston	-10.3847
▁Also	-10.3853
▁profits	-10.3871
ison	-10.3879
nor	-10.3889
orthern	-10.389
Group	-10.389
take	-10.3902
▁Mad	-10.3911
percent	-10.3919
umb	-10.3929
▁23.2	-10.3931
▁prov	-10.3932
▁feature	-10.3935
▁Hi	-10.3952
▁mix	-10.3953
63	-10.3962
Russia	-10.3963
vant	-10.3987
▁Fr	-10.3993
sources	-10.3994
▁seek	-10.3996
marine	-10.3996
▁nu	-10.4002
while	-10.4012
42	-10.4013
▁negotiat	-10.4023
ay	-10.4025
000	-10.4028
▁controll	-10.4028
8.8	-10.4031
AP	-10.4037
▁rele	-10.4041
▁BA	-10.4042
Pekka	-10.4048
UPM	-10.4056
trend	-10.4061
Britain	-10.4062
▁case	-10.4065
▁99	-10.4071
13.1	-10.4079
ES	-10.4082
press	-10.4092
pa	-10.4093
▁000	-10.4096
▁11.3	-10.4096
Kesk	-10.4097
▁Tu	-10.4098
ain	-10.4102
ow	-10.4104
DMA	-10.4125
▁Or	-10.413
alo	-10.4132
villa	-10.4137
▁Ser	-10.4138
wi	-10.4144
▁giv	-10.4146
log	-10.4147
▁hi	-10.4149
UR	-10.4152
▁Interi	-10.4159
▁try	-10.4165
▁met	-10.4182
▁land	-10.4215
▁carri	-10.4216
▁AM	-10.4216
▁stop	-10.4218
Share	-10.4224
RC	-10.4224
▁pri	-10.4226
EU	-10.4232
8,000	-10.4233
2009	-10.4235
Th	-10.4241
One	-10.4242
SM	-10.4248
▁bill	-10.4257
2.9	-10.4269
cycle	-10.4273
▁Ja	-10.4282
▁automati	-10.4286
CH	-10.4292
ach	-10.4301
Mr	-10.4305
esidential	-10.4308
5.5	-10.4313
onference	-10.4331
9.7	-10.4332
▁u	-10.4341
esti	-10.4345
▁visit	-10.435
espec	-10.4361
GN	-10.4363
2.2	-10.4364
▁Ol	-10.4365
▁Ce	-10.438
▁gu	-10.4381
ets	-10.4384
▁Operation	-10.4395
nicke	-10.4395
▁Ta	-10.4396
aims	-10.4399
ession	-10.4403
▁limit	-10.4416
▁40.	-10.4421
▁involv	-10.4429
BP	-10.4439
ended	-10.4448
▁wholesale	-10.445
▁rule	-10.4453
ership	-10.4462
stand	-10.4475
▁Direct	-10.4477
▁analys	-10.4487
▁CO	-10.449
▁Sha	-10.4493
34	-10.4496
▁happ	-10.4496
▁consen	-10.4506
▁Elektro	-10.4506
▁Malaysia	-10.4506
▁crisis	-10.4506
▁Starbucks	-10.4506
▁pilot	-10.4506
▁permanent	-10.4506
▁pursue	-10.4506
▁Ireland	-10.4506
▁Skog	-10.4506
▁intraday	-10.4506
▁Science	-10.4506
▁official	-10.4506
▁spread	-10.4506
▁thousand	-10.4506
▁patient	-10.4506
▁loyal	-10.4506
MSFT	-10.4506
▁Forssa	-10.4506
▁plastic	-10.4506
▁shift	-10.4507
▁Design	-10.4507
▁Venture	-10.4507
Reuters	-10.4507
▁compensat	-10.4507
mon	-10.4507
▁Rival	-10.4507
▁believe	-10.4507
▁initiative	-10.4508
▁orange	-10.4508
▁Hotel	-10.4508
▁plot	-10.4508
▁scissor	-10.4509
▁medium	-10.4509
▁Frank	-10.4509
▁deposit	-10.4509
▁licence	-10.451
VERY	-10.451
▁Consumer	-10.4511
PL	-10.4512
▁exceed	-10.4512
▁copy	-10.4513
▁email	-10.4513
▁Olli	-10.4514
Loude	-10.4514
▁Northern	-10.4515
▁advisor	-10.4515
▁roof	-10.4515
▁minor	-10.4515
▁policy	-10.4516
BAC	-10.4516
▁benefit	-10.4517
▁instrument	-10.4518
calend	-10.4519
▁prof	-10.4521
▁Magazine	-10.4521
▁functionalit	-10.4522
▁indicator	-10.4523
▁attack	-10.4523
▁suffer	-10.4524
▁furn	-10.4526
IBM	-10.4526
Healthcare	-10.4527
▁invent	-10.4531
▁Green	-10.4531
▁Martin	-10.4532
▁competitor	-10.4535
▁apply	-10.4536
Thanks	-10.4536
▁dilut	-10.4539
▁intent	-10.454
SS	-10.4541
▁frequenc	-10.4542
▁replace	-10.4543
key	-10.4545
▁Park	-10.4545
▁14.4	-10.4546
▁internal	-10.4554
400	-10.4557
▁Should	-10.4557
▁Free	-10.4558
▁Federa	-10.456
▁HSBC	-10.456
▁regard	-10.4561
▁Friends	-10.4561
▁Deliver	-10.4561
▁Kingfisher	-10.4562
▁Shareholder	-10.4562
▁radio	-10.4564
▁pressure	-10.4566
▁determin	-10.4568
▁adjustment	-10.4572
▁GeoS	-10.4572
hu	-10.4578
▁dealers	-10.458
▁Just	-10.4581
▁bag	-10.4582
▁supervis	-10.4586
RUT	-10.4588
▁Other	-10.459
5.8	-10.4595
▁finalize	-10.4603
▁code	-10.4607
▁commercially	-10.4609
▁$70	-10.4609
ommittee	-10.4617
KN	-10.4618
▁strength	-10.4618
▁promise	-10.4619
▁shot	-10.462
58	-10.4631
▁chang	-10.4634
▁Leg	-10.4642
▁First	-10.4644
▁Consolidate	-10.4644
▁identi	-10.4651
▁SUVs	-10.4657
▁Art	-10.466
▁Motors	-10.4663
▁Order	-10.4668
▁swing	-10.4672
ations	-10.4678
▁Strong	-10.4687
▁owners	-10.4689
▁cable	-10.4693
▁Off	-10.4694
ogistic	-10.4694
▁gi	-10.4695
▁tower	-10.4705
ISR	-10.4708
CTH	-10.471
▁class	-10.4724
RE	-10.4729
▁help	-10.4732
55	-10.4735
89	-10.4736
▁PT	-10.4738
▁weaken	-10.4741
NNO	-10.4758
▁front	-10.4758
▁version	-10.4777
ahti	-10.4779
▁Post	-10.4785
▁exam	-10.4785
▁49.	-10.4786
▁fee	-10.4788
▁Autom	-10.4793
CO	-10.4796
▁Export	-10.4798
immon	-10.48
▁Sys	-10.4805
▁Tieto	-10.4807
▁Mu	-10.4809
II	-10.4814
▁fast	-10.4816
▁read	-10.4824
▁Sun	-10.4854
ere	-10.4864
▁30.6	-10.4865
▁Gall	-10.4882
stain	-10.4883
▁hu	-10.489
11.7	-10.4904
▁Universit	-10.491
79	-10.493
▁Enter	-10.4937
▁grade	-10.4944
▁climb	-10.4947
0.8	-10.4951
▁initiate	-10.4952
AG	-10.4952
14	-10.4956
▁52	-10.4963
▁regional	-10.4973
▁pass	-10.4979
▁sea	-10.498
▁seal	-10.4986
▁Star	-10.499
4.9	-10.4998
▁module	-10.5008
▁Br	-10.5013
▁arm	-10.5016
▁log	-10.5018
▁host	-10.5021
2.7	-10.5025
9.8	-10.5026
1.7	-10.5037
ence	-10.5046
ference	-10.5049
rating	-10.5069
14.3	-10.5084
roll	-10.5089
him	-10.5093
▁6%	-10.5094
▁connect	-10.5095
neer	-10.5104
ction	-10.5108
▁des	-10.5109
▁server	-10.5116
▁box	-10.5126
▁14.	-10.5136
tr	-10.5137
special	-10.5138
▁2,000	-10.5144
mid	-10.515
sure	-10.5154
skars	-10.5159
39	-10.5163
Al	-10.5173
tual	-10.5179
0.9	-10.5193
isa	-10.5195
▁Sever	-10.5196
4.8	-10.5198
4.5	-10.5202
▁comp	-10.5214
▁sharp	-10.5221
3,	-10.5221
cation	-10.5226
%),	-10.5242
stj	-10.5248
DI	-10.525
60,000	-10.5254
▁discount	-10.526
▁uncertaint	-10.5266
▁TO	-10.5267
▁streamlin	-10.5268
▁concentrat	-10.5269
5.6	-10.527
▁too	-10.5278
7.4	-10.5279
▁relocate	-10.5286
▁Current	-10.529
▁7.7	-10.5311
▁stand	-10.5344
turn	-10.5356
place	-10.536
PO	-10.5379
1.1	-10.5379
▁Dep	-10.5397
▁responsibilit	-10.5402
nair	-10.5403
▁Chi	-10.5403
▁stopp	-10.5407
dge	-10.5414
▁works	-10.5414
47	-10.5417
entric	-10.542
▁Pr	-10.543
▁Drug	-10.544
AR	-10.5451
▁expire	-10.5452
elease	-10.5457
04	-10.546
▁fat	-10.5463
ments	-10.5464
aari	-10.5465
▁Swit	-10.5472
gency	-10.5479
1,	-10.5479
ark	-10.5496
lease	-10.5503
put	-10.5505
▁HKS	-10.5506
▁Nic	-10.551
ery	-10.5516
▁FIS	-10.5529
▁holder	-10.5529
Mets	-10.5533
▁Com	-10.5541
▁BN	-10.5544
ob	-10.5555
CP	-10.5556
ner	-10.5563
▁88	-10.5569
bit	-10.5573
TI	-10.5574
▁con	-10.5576
▁KC	-10.559
uge	-10.5601
ield	-10.5624
SB	-10.5631
▁drops	-10.5655
▁!,	-10.5662
▁reduc	-10.5685
1.3	-10.5694
▁fis	-10.5695
evelopment	-10.5697
LA	-10.5698
vel	-10.57
share	-10.57
they	-10.5701
use	-10.5711
11.1	-10.5712
ps	-10.572
BE	-10.5724
▁save	-10.5725
urchase	-10.5731
▁elect	-10.5734
▁mo	-10.5734
▁increases	-10.574
men	-10.5747
▁52.	-10.5747
▁emerg	-10.5752
▁51	-10.5754
role	-10.5764
64	-10.5766
▁Kap	-10.5785
▁Mart	-10.5786
▁Good	-10.5788
ensive	-10.5793
▁quarterly	-10.5794
▁5-	-10.5796
Tel	-10.5833
service	-10.5851
lip	-10.586
▁bu	-10.5875
▁mus	-10.5882
100	-10.5896
2006	-10.5902
ND	-10.5905
ual	-10.5909
44	-10.591
dium	-10.592
▁exp	-10.5924
col	-10.5925
▁custom	-10.5931
85	-10.5932
cially	-10.5933
▁cr	-10.5934
▁+1	-10.5938
pp	-10.5946
▁Stee	-10.5954
.38	-10.5955
▁1,	-10.5966
cil	-10.5993
point	-10.5997
▁ve	-10.6
RK	-10.6003
Nord	-10.6017
angle	-10.6025
life	-10.6026
large	-10.6027
ls	-10.6038
Financial	-10.6039
print	-10.6044
Watch	-10.6047
6.7	-10.6048
aldi	-10.605
Pohjola	-10.605
▁incur	-10.605
▁broke	-10.6052
Alma	-10.6055
▁pret	-10.6056
glass	-10.6057
PR	-10.606
PA	-10.6061
▁135	-10.6064
Cash	-10.6071
▁weigh	-10.6073
van	-10.608
▁axe	-10.6082
km	-10.6083
next	-10.6083
Markets	-10.6091
▁health	-10.6095
74	-10.6104
▁SA	-10.6104
earlie	-10.6111
▁scal	-10.6112
▁associate	-10.6116
ordea	-10.6126
▁Ki	-10.6131
tek	-10.6138
▁96	-10.6162
5.0	-10.6164
IP	-10.6165
▁9.0	-10.6168
eration	-10.6178
▁act	-10.6178
▁readers	-10.6184
ccessor	-10.6188
TZ	-10.619
▁positive	-10.6199
telecom	-10.6201
AC	-10.6201
▁statu	-10.6202
▁client	-10.6203
13.5	-10.6205
▁4.8	-10.6206
▁pos	-10.6235
48	-10.6241
▁integrate	-10.6246
▁partners	-10.6248
▁sche	-10.6254
▁vehicle	-10.6256
GM	-10.6257
▁Announce	-10.6273
▁Plu	-10.6284
▁Sain	-10.6292
▁standard	-10.6292
2,000	-10.63
ja	-10.6307
Real	-10.6308
WR	-10.631
▁Techno	-10.6329
▁driv	-10.6333
▁extra	-10.6366
fel	-10.6371
▁tie	-10.6375
MS	-10.6377
als	-10.6401
ax	-10.6418
▁AF	-10.6419
▁mean	-10.642
▁56	-10.6441
ongo	-10.6443
operative	-10.645
sidential	-10.6476
▁substantial	-10.648
nterprise	-10.6501
asyJet	-10.6504
▁Heikki	-10.6506
▁Project	-10.6506
▁Symbian	-10.6506
▁difficult	-10.6506
▁journey	-10.6506
▁objective	-10.6506
▁recruit	-10.6506
▁Brexit	-10.6506
▁Kuitu	-10.6506
▁Receive	-10.6506
▁antenna	-10.6506
▁attempt	-10.6506
▁interface	-10.6506
▁slaughter	-10.6506
▁Pharma	-10.6506
▁SHARE	-10.6506
▁Video	-10.6506
▁Boerse	-10.6506
▁opinion	-10.6506
▁succeed	-10.6506
▁progress	-10.6506
▁surface	-10.6506
▁unveil	-10.6506
▁alternative	-10.6506
▁Newstex	-10.6506
▁furnace	-10.6506
▁Carphone	-10.6506
▁CORPORAT	-10.6506
▁impress	-10.6506
▁Smith	-10.6506
▁tailor	-10.6507
▁appear	-10.6507
▁Slovak	-10.6507
▁PKC	-10.6507
▁smelt	-10.6507
▁headbox	-10.6507
▁circulati	-10.6507
▁memor	-10.6507
▁High	-10.6507
▁supermarket	-10.6507
▁attach	-10.6507
scribe	-10.6507
PRESS	-10.6507
AXP	-10.6507
▁depend	-10.6507
▁human	-10.6508
▁Cyber	-10.6508
▁Fargo	-10.6508
▁reversal	-10.6508
furt	-10.6508
▁catalyst	-10.6508
COST	-10.6509
▁Merger	-10.6509
INO	-10.6509
▁outperform	-10.6509
▁clarif	-10.6509
▁Phone	-10.651
▁subcontractor	-10.651
▁insurer	-10.651
▁float	-10.651
▁Competition	-10.6511
▁provision	-10.6511
▁Recall	-10.6513
▁premium	-10.6514
▁tips	-10.6514
ike	-10.6515
▁Million	-10.6516
▁refu	-10.6516
▁bottle	-10.6518
OO	-10.6518
▁Big	-10.6518
fran	-10.6519
▁hike	-10.6519
▁count	-10.6521
Space	-10.6522
▁trademark	-10.6522
▁Continue	-10.6524
▁Tool	-10.6525
window	-10.6526
▁Infrastructure	-10.6528
▁Hamp	-10.6528
▁wait	-10.653
ious	-10.6532
▁Grup	-10.6532
▁-0.4	-10.6532
▁sinter	-10.6532
▁grind	-10.6533
ernan	-10.6534
▁detect	-10.6535
▁love	-10.6536
▁LG	-10.6536
▁authoriz	-10.6536
▁currencies	-10.6536
▁Machinery	-10.6545
▁archi	-10.6548
▁Handl	-10.6548
▁tumble	-10.6549
1.4	-10.655
way	-10.655
trailer	-10.655
▁CAP	-10.6551
▁sens	-10.6552
▁airport	-10.6552
urement	-10.6554
▁downside	-10.6554
▁earn	-10.6555
▁trial	-10.6556
Body	-10.6557
▁proceed	-10.6557
▁Public	-10.6557
audi	-10.6557
▁25.4	-10.6559
▁shareholding	-10.6562
▁semi	-10.6564
lia	-10.6566
▁seems	-10.6566
ikka	-10.6568
▁hot	-10.6569
▁Charg	-10.657
▁Tecno	-10.657
▁drink	-10.6571
▁Gain	-10.6572
▁Lloyds	-10.6573
▁Customer	-10.6573
▁GlaxoSmithKline	-10.6574
▁450	-10.6576
▁Demand	-10.6576
▁117	-10.658
▁Economic	-10.6581
▁occupie	-10.6582
▁multiple	-10.6582
▁compre	-10.6584
▁Master	-10.6584
▁Back	-10.6586
▁Feed	-10.6587
▁Mika	-10.6589
▁tele	-10.659
▁11.5	-10.6591
▁challenging	-10.6594
▁Bri	-10.6598
▁fallen	-10.6601
-06	-10.6603
▁.08	-10.6605
28	-10.6606
150	-10.6607
▁Top	-10.6607
▁Propert	-10.6608
▁15.4	-10.6608
fresh	-10.6608
nergy	-10.6616
▁Forest	-10.6624
tan	-10.6625
▁Tec	-10.6626
▁competenc	-10.663
▁Her	-10.6633
7.7	-10.6637
▁17.5	-10.6638
▁lol	-10.6642
▁repeat	-10.6649
▁invit	-10.6649
▁Prot	-10.6649
▁Invest	-10.6654
ik	-10.6656
vil	-10.6665
▁16.7	-10.6671
▁extended	-10.6673
Ok	-10.6674
▁LNG	-10.6679
6.8	-10.6686
▁Ris	-10.6689
67	-10.6692
▁23.5	-10.6694
▁farm	-10.6697
▁outl	-10.6702
▁extract	-10.6709
halt	-10.6712
▁layoff	-10.6724
mination	-10.6725
tic	-10.6725
▁guide	-10.6726
▁east	-10.6727
▁Sto	-10.6727
ava	-10.6738
iddle	-10.6742
▁Got	-10.6743
▁20.5	-10.6744
▁Name	-10.6746
▁plumb	-10.6747
▁leak	-10.675
▁moves	-10.6754
▁coatings	-10.6756
▁66	-10.6757
▁hav	-10.6765
▁cour	-10.6773
▁Qualcomm	-10.6777
▁spend	-10.6788
lack	-10.6797
HU	-10.6805
IM	-10.6806
maki	-10.681
▁16.6	-10.6811
▁8.9	-10.6816
▁43.8	-10.6822
alized	-10.6823
▁18.6	-10.6825
ER	-10.6826
▁Rise	-10.6829
▁pipe	-10.6832
▁Tom	-10.6839
▁standards	-10.684
arine	-10.6844
▁Fren	-10.6849
▁Davi	-10.6852
are	-10.6853
▁fore	-10.6856
▁tu	-10.686
▁Mid	-10.6864
Go	-10.6866
▁dispos	-10.6866
ector	-10.687
regular	-10.6872
▁knowledge	-10.6877
▁Yahoo	-10.6879
AO	-10.6888
rupt	-10.6897
▁tank	-10.6899
▁subscriber	-10.6906
▁Rig	-10.6913
ope	-10.6915
▁18.1	-10.6917
▁Loss	-10.6917
▁Production	-10.6918
8,	-10.6919
ift	-10.6919
form	-10.692
NEM	-10.6923
▁recept	-10.6931
▁Hit	-10.6941
AMR	-10.695
itsu	-10.6952
VV	-10.696
TH	-10.6962
common	-10.6965
▁matur	-10.6968
eturn	-10.6978
▁Test	-10.6982
▁12.5	-10.6989
her	-10.7001
ature	-10.7003
▁petro	-10.7005
▁Ke	-10.7028
ug	-10.7038
▁Ham	-10.704
5.2	-10.7042
ov	-10.7046
▁Tur	-10.7047
575	-10.7066
sko	-10.7067
Pro	-10.7068
▁convert	-10.7073
cific	-10.7075
▁Go	-10.7076
He	-10.7079
▁shoe	-10.708
KE	-10.708
til	-10.709
▁operative	-10.7101
ie	-10.7105
▁Foods	-10.7105
cala	-10.7107
-10	-10.7112
OU	-10.7122
▁400	-10.7124
▁15.	-10.7124
▁cur	-10.713
rizon	-10.7132
49	-10.7134
▁Put	-10.7134
▁bulls	-10.7141
public	-10.7144
▁1,6	-10.7148
▁9.3	-10.7159
▁DMA	-10.716
▁Cha	-10.7169
▁Un	-10.717
84	-10.7176
night	-10.7187
▁explor	-10.7188
▁5.6	-10.721
▁Alf	-10.7216
▁Suis	-10.7221
auppalehti	-10.7222
hang	-10.7226
ength	-10.7233
disclose	-10.7242
tec	-10.7254
▁Lid	-10.7257
EQ	-10.726
Rosen	-10.7262
EFI	-10.7269
for	-10.7269
▁50-	-10.727
.12	-10.728
spy	-10.7288
▁renovat	-10.729
eats	-10.7304
▁Kai	-10.7321
▁Set	-10.7327
Ac	-10.7329
▁Cop	-10.733
TM	-10.7333
lead	-10.7335
▁unt	-10.7345
▁Finance	-10.7357
▁merchan	-10.7359
SN	-10.7359
▁11.0	-10.7369
mun	-10.7381
▁Mee	-10.7397
▁72	-10.74
ackag	-10.7401
▁Hann	-10.7406
HS	-10.7414
tuck	-10.7415
75	-10.7415
▁var	-10.742
LN	-10.7421
▁1,5	-10.7423
ways	-10.7429
NAV	-10.7431
▁35.	-10.7453
▁Bel	-10.7465
21	-10.7474
▁challenge	-10.7484
▁surf	-10.7492
anen	-10.7496
ixed	-10.7508
pen	-10.7513
▁Time	-10.7516
▁5.7	-10.7518
alone	-10.7519
▁Ku	-10.7527
OTE	-10.7527
▁sur	-10.7534
rdene	-10.7539
▁fill	-10.7544
omposite	-10.7545
▁Intelli	-10.7553
▁productiv	-10.7557
▁ac	-10.7558
rkki	-10.756
▁ho	-10.7616
ven	-10.7618
▁tru	-10.7621
BI	-10.7627
▁Diag	-10.7637
ata	-10.7638
▁17.	-10.7643
uk	-10.7667
▁My	-10.7668
▁puts	-10.7668
▁Ros	-10.7675
▁employe	-10.7675
▁separat	-10.7677
▁Serv	-10.7683
▁.74	-10.7686
greed	-10.7688
enha	-10.7691
▁War	-10.7693
▁.11	-10.771
▁201	-10.772
UK	-10.7734
▁Ga	-10.7738
▁Che	-10.7742
▁newly	-10.7744
try	-10.7749
rew	-10.7759
exa	-10.7775
▁SEL	-10.778
▁competit	-10.7809
▁considera	-10.7809
▁50.	-10.7822
inc	-10.7831
art	-10.7856
▁PO	-10.786
page	-10.7866
nB	-10.7871
5,	-10.7873
▁At	-10.7881
▁ball	-10.7886
Finn	-10.7892
▁writ	-10.7893
▁Dri	-10.7895
CD	-10.7906
ga	-10.7912
isal	-10.7917
sus	-10.7921
OY	-10.7922
▁10.1	-10.7928
FI	-10.793
▁tw	-10.7931
RD	-10.7934
opper	-10.7937
list	-10.794
VP	-10.7942
▁Take	-10.7946
/4	-10.7952
ze	-10.7955
▁Under	-10.7968
born	-10.7984
VX	-10.7989
ru	-10.7989
mpany	-10.799
SO	-10.7991
▁Am	-10.7991
Techno	-10.7991
68	-10.7997
▁ei	-10.7997
▁Industrie	-10.8005
▁Follow	-10.8014
came	-10.8022
zh	-10.8024
ately	-10.8027
isten	-10.8031
order	-10.8033
HB	-10.8037
▁170	-10.8038
AD	-10.8038
▁Dr	-10.8044
panies	-10.8055
LE	-10.8058
ult	-10.8071
EA	-10.8074
▁10.4	-10.8085
eop	-10.8093
El	-10.8097
▁Ry	-10.8099
bo	-10.8112
▁2.1	-10.8113
▁cli	-10.812
▁87	-10.8121
▁105	-10.8133
▁Str	-10.815
▁1,4	-10.8154
ku	-10.8176
▁32.	-10.818
▁94	-10.8185
59	-10.8192
▁ban	-10.8198
oni	-10.8218
Trad	-10.8222
▁struggl	-10.8239
zn	-10.8242
▁Dan	-10.8244
atent	-10.8249
▁differ	-10.8263
New	-10.8265
▁soft	-10.8274
▁communit	-10.8275
▁modul	-10.8294
Helsinki	-10.8296
▁Du	-10.83
▁10-	-10.8301
ei	-10.8305
ST	-10.8313
▁deliveri	-10.8313
tie	-10.8322
▁Ste	-10.8329
53	-10.8334
--------------	-10.834
SCO	-10.8341
Mean	-10.8351
AE	-10.8355
82	-10.8361
eters	-10.8366
▁pr	-10.8369
▁Broad	-10.8375
▁aut	-10.8379
Due	-10.8385
▁34	-10.8392
unch	-10.8399
▁Fro	-10.84
▁Gro	-10.84
▁Vol	-10.8407
ozen	-10.842
weight	-10.8425
Raut	-10.8427
▁Cargo	-10.8443
half	-10.8446
▁Ver	-10.8455
▁Mer	-10.8457
51	-10.8459
ldi	-10.847
▁historic	-10.847
ak	-10.8474
▁cho	-10.8474
FE	-10.8479
▁prepare	-10.8482
90	-10.8484
▁110	-10.8485
ecutive	-10.8486
espe	-10.8507
August	-10.8507
ook	-10.8514
38	-10.8516
AstraZeneca	-10.8529
Sal	-10.853
Tesco	-10.8538
▁Marc	-10.854
water	-10.8541
Sampo	-10.8541
EBIT	-10.8547
▁Exe	-10.8547
Yahoo	-10.8547
Stockholm	-10.8548
knowledge	-10.8549
bread	-10.855
ongg	-10.8551
Long	-10.8553
Tieto	-10.8554
Honka	-10.8557
Apple	-10.8557
▁RA	-10.8557
Kone	-10.8558
supply	-10.8559
▁RS	-10.8559
May	-10.8562
▁Associat	-10.8565
Bio	-10.8566
01	-10.8578
Food	-10.8588
▁84	-10.8589
More	-10.8593
atalo	-10.8593
Aviva	-10.8604
stream	-10.8604
▁pull	-10.8605
▁Ko	-10.8609
Export	-10.8609
cut	-10.861
rcelo	-10.8612
.30	-10.8617
ond	-10.8629
shop	-10.8629
NOM	-10.8638
▁wor	-10.8642
lan	-10.8645
▁distri	-10.8652
/6	-10.8666
Fon	-10.8667
llis	-10.8668
▁messag	-10.8669
350	-10.8669
LG	-10.8676
▁simpl	-10.8677
▁Investor	-10.8677
iff	-10.8679
Fortu	-10.8686
bus	-10.869
▁rises	-10.8692
vision	-10.8692
defin	-10.8699
Jan	-10.8702
CN	-10.871
.0	-10.8711
earning	-10.8712
TE	-10.8728
ection	-10.8736
poul	-10.8741
Stor	-10.8761
▁coating	-10.8761
que	-10.8763
▁heads	-10.8779
ges	-10.8798
UT	-10.8803
ext	-10.8806
ses	-10.8806
▁48.	-10.8824
▁slashe	-10.8832
fect	-10.8836
oki	-10.8838
GE	-10.8858
▁tree	-10.886
RL	-10.8861
nference	-10.8875
▁Distri	-10.8877
▁grad	-10.888
▁Sep	-10.8882
▁sponsor	-10.8887
ana	-10.8887
UNC	-10.8889
▁Break	-10.8896
DB	-10.8901
▁Nu	-10.8904
.74	-10.8908
Suom	-10.8915
ION	-10.892
▁Institut	-10.8929
▁priva	-10.8945
▁communicat	-10.8945
▁introduc	-10.8946
▁nomina	-10.8954
hough	-10.8959
▁innovati	-10.8961
▁Vuo	-10.8963
rporation	-10.8963
FC	-10.897
gricultur	-10.8975
▁Man	-10.8978
uthorit	-10.8981
map	-10.899
▁trader	-10.8995
▁wag	-10.8996
Bot	-10.8999
PI	-10.8999
▁entitle	-10.9
▁liqu	-10.9003
▁marg	-10.9005
▁stud	-10.9005
Establishe	-10.9006
Kalnapili	-10.9006
LULU	-10.9006
▁Ashtead	-10.9006
▁BRIEF	-10.9006
▁Passenger	-10.9006
▁Philippines	-10.9006
▁Uruguay	-10.9006
▁aggregat	-10.9006
▁cautious	-10.9006
▁mortgage	-10.9006
▁prosecut	-10.9006
▁restaurant	-10.9006
▁Bangalore	-10.9006
▁Prudential	-10.9006
▁Ultra	-10.9006
▁Vladi	-10.9006
▁fluctuat	-10.9006
▁Transaction	-10.9006
▁accommodat	-10.9006
▁fabric	-10.9006
▁milestone	-10.9006
▁Branch	-10.9006
▁amplifier	-10.9006
▁rebound	-10.9006
▁16.12.20	-10.9006
▁discontinue	-10.9006
▁Bounce	-10.9006
▁relationship	-10.9006
▁northwest	-10.9006
▁Pvt	-10.9006
▁fireplace	-10.9006
▁advantage	-10.9006
▁resolve	-10.9006
▁shipyard	-10.9006
▁split	-10.9006
Chem	-10.9006
▁Major	-10.9006
▁garden	-10.9006
▁question	-10.9006
▁Travel	-10.9006
▁birch	-10.9006
▁Record	-10.9006
PCLN	-10.9006
▁grocer	-10.9006
▁volatility	-10.9007
▁probabl	-10.9007
Centrica	-10.9007
▁Tapio	-10.9007
▁Defen	-10.9007
▁answer	-10.9007
▁Fuj	-10.9007
certa	-10.9007
▁retire	-10.9007
▁winner	-10.9007
ATVI	-10.9007
▁Flexible	-10.9007
▁Class	-10.9007
▁plunge	-10.9008
▁optimistic	-10.9008
▁Kosk	-10.9008
▁display	-10.9008
HK	-10.9009
▁horizon	-10.9009
QCOM	-10.9009
▁dragg	-10.9009
▁PCB	-10.901
▁smok	-10.901
▁CRH	-10.901
▁tube	-10.901
▁snap	-10.901
▁Tower	-10.9011
▁Paul	-10.9011
▁season	-10.9011
▁hurt	-10.9011
UV	-10.9011
▁Mikko	-10.9012
▁express	-10.9012
▁distinct	-10.9012
▁Connect	-10.9013
▁remote	-10.9013
▁cheer	-10.9013
▁amendment	-10.9013
▁easyJet	-10.9013
▁Middle	-10.9014
GDX	-10.9014
▁satisf	-10.9014
▁Pivo	-10.9014
▁criticis	-10.9015
▁LONG	-10.9015
▁mineral	-10.9016
Outperform	-10.9016
▁grain	-10.9017
▁Grow	-10.9017
▁automo	-10.9018
1.5	-10.9019
Taur	-10.902
▁Jones	-10.9021
▁Positive	-10.9021
▁interior	-10.9022
▁desk	-10.9023
▁demonstration	-10.9023
▁1998	-10.9024
▁Brewer	-10.9024
▁Offer	-10.9025
▁MID	-10.9025
▁inspection	-10.9026
▁camera	-10.9029
▁Farm	-10.9029
▁Wester	-10.9029
▁blam	-10.903
active	-10.9031
▁flat	-10.9031
WPP	-10.9033
▁Asset	-10.9033
▁harvester	-10.9033
▁Scott	-10.9034
ESS	-10.9034
▁Wall	-10.9037
▁Ny	-10.9038
▁oversold	-10.9038
▁delayed	-10.9039
▁Award	-10.9043
▁Atom	-10.9047
▁Arabia	-10.9047
▁trans	-10.9048
▁highest	-10.9049
genda	-10.905
▁complement	-10.9052
▁IN	-10.9052
▁Nav	-10.9055
▁settle	-10.9056
▁Ervi	-10.9056
9.2	-10.9056
▁Ranta	-10.9057
▁tyre	-10.9058
▁crew	-10.9058
▁tanker	-10.9059
▁Option	-10.9059
▁geographical	-10.9059
▁scann	-10.9062
eollisuu	-10.9062
ACE	-10.9062
▁discussion	-10.9063
aja	-10.9063
WYN	-10.907
index	-10.9071
▁tablet	-10.9075
▁Fre	-10.9076
▁19.9	-10.9081
▁Institution	-10.9083
TD	-10.9084
▁Wils	-10.9084
▁cruis	-10.9085
▁Silv	-10.9086
finger	-10.9087
▁Coun	-10.9088
250	-10.9089
var	-10.9092
uff	-10.9093
▁fact	-10.9093
94	-10.9094
▁Now	-10.9094
▁triple	-10.9095
▁ER	-10.9096
!",	-10.9096
▁usual	-10.9097
▁Application	-10.9099
▁Amazon	-10.9101
▁Stake	-10.9103
burn	-10.9103
Iso	-10.9103
▁appointment	-10.9108
▁24.6	-10.911
▁hack	-10.911
▁750	-10.9112
sala	-10.9115
▁Kim	-10.9117
!!	-10.9119
▁42.	-10.912
▁Kaun	-10.912
SD	-10.9122
ek	-10.9126
▁TEC	-10.9126
WS	-10.913
▁boss	-10.913
▁auth	-10.9131
cul	-10.9131
tz	-10.9135
▁kron	-10.9141
▁Statement	-10.915
▁Gl	-10.9152
▁limited	-10.9154
▁35.3	-10.9156
nical	-10.9156
▁OK	-10.9169
IX	-10.9169
▁Closed	-10.917
Result	-10.9172
▁acting	-10.9174
AM	-10.9178
bel	-10.9183
▁kilo	-10.9184
▁33.8	-10.9186
▁Delh	-10.9189
▁48.3	-10.919
NGA	-10.9194
▁slash	-10.9197
▁lure	-10.9199
▁NOR	-10.9202
▁hours	-10.9203
YS	-10.9208
NET	-10.9209
▁owne	-10.9211
▁BIO	-10.9212
ered	-10.9216
Additional	-10.9222
VZ	-10.9226
▁pipette	-10.9227
▁Proha	-10.9228
▁retain	-10.9231
▁lei	-10.9231
2,70	-10.9231
ply	-10.9234
▁fit	-10.9234
.88	-10.9234
▁Mega	-10.9235
nge	-10.9235
▁parti	-10.9237
rse	-10.9243
▁8,5	-10.9245
▁wall	-10.9245
▁Chart	-10.9246
▁friend	-10.9247
III	-10.9251
▁Commerc	-10.9256
▁pound	-10.926
▁Mark	-10.9268
▁lat	-10.9268
▁Yli	-10.9273
▁fac	-10.9274
▁13.2	-10.9276
▁Altim	-10.9276
▁scen	-10.9277
▁Some	-10.9285
▁contribute	-10.9285
PY	-10.929
ock	-10.9295
tochastic	-10.9302
▁feasib	-10.9309
▁IF	-10.9315
right	-10.932
▁map	-10.9323
MW	-10.9324
▁Palm	-10.9327
ordinate	-10.9327
▁12.1	-10.933
▁Sp	-10.9331
▁Si	-10.9332
30.9	-10.9332
0,	-10.9333
▁customi	-10.9335
enjo	-10.9336
▁servic	-10.9341
▁Perk	-10.9343
▁1.	-10.9346
▁Sve	-10.935
stocks	-10.935
CHA	-10.935
▁Pensio	-10.9351
▁Can	-10.9353
/9	-10.9367
▁RO	-10.9367
▁Wor	-10.9368
ahl	-10.9369
▁message	-10.9371
▁DC	-10.9372
▁2:	-10.9373
▁link	-10.9373
ske	-10.9373
fir	-10.9379
maker	-10.9381
.80	-10.9382
Cram	-10.9383
▁defen	-10.9385
▁Bid	-10.9386
▁shipbuild	-10.9395
▁Ev	-10.9396
▁Pers	-10.9398
▁organic	-10.9401
▁skier	-10.9407
opoli	-10.9415
▁climbs	-10.942
isation	-10.9421
▁phosph	-10.9427
All	-10.9428
▁status	-10.9435
▁ask	-10.9437
▁Twi	-10.9441
▁50,000	-10.9449
GC	-10.945
▁24-	-10.945
▁becom	-10.9457
ska	-10.9461
▁Typ	-10.9463
131	-10.9465
▁BU	-10.9466
▁resh	-10.9467
▁NT	-10.9468
▁ris	-10.9473
▁17.2	-10.9475
▁Alumini	-10.9478
▁58	-10.9478
ABB	-10.9483
met	-10.9485
▁Ash	-10.9487
▁Gard	-10.9489
▁cry	-10.9502
▁outsource	-10.9516
▁Sch	-10.952
13.8	-10.9521
▁12.	-10.9525
odies	-10.9531
riet	-10.9537
olutions	-10.9546
irkka	-10.9547
▁15.8	-10.9552
▁poi	-10.9554
▁bread	-10.9555
▁listing	-10.9559
What	-10.956
▁18.5	-10.9565
5.4	-10.9567
eller	-10.9568
▁lend	-10.957
conomic	-10.957
▁Pot	-10.9604
eut	-10.9622
▁Hous	-10.9624
0.47	-10.9624
quee	-10.9626
▁surges	-10.9628
▁Watch	-10.9638
▁""	-10.964
▁7.0	-10.9647
otal	-10.9648
LP	-10.9661
▁mandat	-10.9661
▁Su	-10.9663
▁Leh	-10.9664
▁23.	-10.968
▁PM	-10.9696
▁Salon	-10.97
EB	-10.9714
▁liquidat	-10.9716
▁layer	-10.9717
rox	-10.9717
▁rivals	-10.9724
▁marked	-10.9731
93	-10.9741
▁execute	-10.9752
▁leaders	-10.9762
▁Vie	-10.9767
▁upgrad	-10.9769
▁Pekka	-10.977
▁foot	-10.977
▁Convergen	-10.9771
xx	-10.9771
▁COMP	-10.9771
▁Tyrv	-10.9776
Thu	-10.978
▁21.3	-10.9796
▁deb	-10.9797
eli	-10.9805
1.0	-10.9816
▁End	-10.9834
▁room	-10.9836
98	-10.9842
▁asp	-10.9849
▁iP	-10.9863
▁pack	-10.9876
SAV	-10.9877
limi	-10.9886
▁assum	-10.9889
Va	-10.9901
ukka	-10.9901
▁why	-10.9909
NB	-10.9909
BL	-10.9915
alm	-10.9916
▁secur	-10.9922
UG	-10.9925
QL	-10.9935
▁Engl	-10.994
62	-10.9948
"	-10.995
▁syndicate	-10.9964
/15	-10.9968
▁tri	-10.9968
200	-10.9969
▁Fur	-10.9973
▁technolog	-10.9974
manda	-10.9986
▁2004-	-10.9989
NC	-10.9992
ales	-11.0003
ultan	-11.0016
Geni	-11.0029
▁RM	-11.0034
▁Car	-11.0036
▁Termina	-11.004
▁Alto	-11.0042
▁64	-11.0049
RN	-11.0061
mak	-11.007
amental	-11.0071
▁198	-11.0073
IS	-11.0075
▁metro	-11.0076
pt	-11.01
▁span	-11.0101
▁BB	-11.0102
▁95	-11.0123
▁conc	-11.0129
aine	-11.0135
▁participat	-11.0136
west	-11.0142
utdoor	-11.0143
car	-11.0143
5.9	-11.0147
2008	-11.015
▁GE	-11.0153
▁mode	-11.0157
DM	-11.0165
▁JV	-11.0171
race	-11.0178
▁search	-11.0178
▁arrange	-11.0179
0.4	-11.0179
pment	-11.0184
wt	-11.0193
▁evaluat	-11.0193
▁Gar	-11.0194
kka	-11.0195
TY	-11.0198
bot	-11.02
▁Pi	-11.0213
▁Cent	-11.0223
▁Ky	-11.0224
MB	-11.0226
▁800	-11.0236
di	-11.0245
ura	-11.0264
enter	-11.0279
DN	-11.0282
▁write	-11.0282
▁faller	-11.0285
▁Hil	-11.033
EN	-11.0341
▁ba	-11.0358
▁Lib	-11.0364
treet	-11.0365
NCE	-11.0365
▁Has	-11.0378
BU	-11.0379
ismisse	-11.0391
▁53	-11.0393
▁pleas	-11.0398
▁62	-11.0401
relat	-11.0402
▁Stat	-11.0407
erber	-11.0418
wn	-11.043
TV	-11.0447
▁sent	-11.0455
▁Gi	-11.0461
OH	-11.0462
br	-11.0465
eo	-11.0468
▁activ	-11.0471
▁79	-11.0477
▁moved	-11.048
JN	-11.0485
CI	-11.0491
34-	-11.0494
CIS	-11.0499
rill	-11.05
320	-11.0513
Publish	-11.0516
▁Affa	-11.0525
▁43.	-11.0525
HD	-11.0527
▁Plat	-11.0535
▁AD	-11.0537
▁109	-11.0538
ollo	-11.0539
hat	-11.0543
ham	-11.0543
ordin	-11.0545
▁drugs	-11.0546
Ju	-11.0551
87	-11.0553
120	-11.0565
NN	-11.0573
▁57.	-11.0575
▁CV	-11.0594
nso	-11.0607
tu	-11.0609
hus	-11.0611
▁shal	-11.0614
▁Jou	-11.0623
La	-11.0631
ape	-11.0632
tro	-11.0635
▁recycle	-11.0647
0.3	-11.0649
▁13.3	-11.0651
eer	-11.0658
49.1	-11.0662
▁war	-11.0679
8.9	-11.068
DP	-11.0693
icker	-11.0694
lace	-11.0694
ski	-11.0715
▁suc	-11.0716
earl	-11.0719
▁Rep	-11.0723
eant	-11.0724
2.1	-11.074
rish	-11.0745
sanoma	-11.0749
▁activate	-11.075
▁consisten	-11.0762
NS	-11.0768
▁$6	-11.0771
▁Ferr	-11.0772
atin	-11.0773
ket	-11.0774
dicate	-11.0793
erry	-11.0814
MP	-11.0814
pine	-11.0823
emb	-11.083
▁Sk	-11.0837
▁3,	-11.0841
▁applie	-11.0854
▁concentrate	-11.0854
▁Laa	-11.0856
▁streamline	-11.0859
▁44	-11.0871
▁2,5	-11.0876
spot	-11.0877
▁13.	-11.0891
▁68.	-11.0899
nies	-11.0906
▁turning	-11.0914
ecision	-11.0915
Nev	-11.0919
profit	-11.0924
raz	-11.0951
24	-11.0954
9.3	-11.0954
2011	-11.0956
Vi	-11.0975
ah	-11.0985
med	-11.0985
▁Relat	-11.1002
itation	-11.1003
▁194	-11.1007
71	-11.1014
VC	-11.1014
▁distribut	-11.1017
PG	-11.102
▁Dia	-11.102
▁wa	-11.1026
36	-11.1034
tama	-11.1043
ED	-11.1045
4,7	-11.1047
dministrati	-11.1047
▁shel	-11.1061
amo	-11.1062
▁fib	-11.1067
▁Most	-11.1069
▁Boa	-11.1073
si	-11.1106
ident	-11.1108
ul	-11.1109
▁10.7	-11.1118
jo	-11.1122
9.4	-11.1122
▁edg	-11.1123
▁2,4	-11.1132
ancer	-11.1142
hrough	-11.116
▁520	-11.1165
teel	-11.1171
▁scre	-11.1171
ave	-11.1179
▁fold	-11.1179
KK	-11.1191
mir	-11.1194
WC	-11.1202
▁si	-11.122
0.6	-11.1223
sales	-11.1226
▁SK	-11.123
▁str	-11.1232
▁li	-11.1233
ms	-11.1235
▁man	-11.1237
▁indicat	-11.124
▁bab	-11.1243
rapeutic	-11.1261
▁Soci	-11.1267
LS	-11.127
gg	-11.1284
KM	-11.1288
angas	-11.1295
▁beat	-11.1297
bor	-11.1306
RTS	-11.131
even	-11.131
▁245	-11.1315
istance	-11.1324
▁fer	-11.1331
▁coat	-11.1335
155	-11.1338
▁processe	-11.1338
em	-11.134
rate	-11.1346
▁remov	-11.1348
▁converti	-11.1353
▁189	-11.1354
dri	-11.1366
leste	-11.1374
Ber	-11.1397
▁.87	-11.1401
Companies	-11.1402
Card	-11.1408
1.9	-11.1415
hour	-11.1418
zer	-11.1424
TT	-11.1426
▁133	-11.1426
have	-11.1426
ys	-11.1434
0.11	-11.1437
aika	-11.1437
▁bett	-11.1442
▁Eli	-11.1456
▁cha	-11.1464
rete	-11.1467
nnel	-11.1472
▁browse	-11.1472
oy	-11.1477
owner	-11.1495
tas	-11.1498
igital	-11.1505
▁CU	-11.1513
ertise	-11.1524
▁Ge	-11.154
▁del	-11.1552
ISH	-11.1566
PP	-11.1584
efficien	-11.159
▁89	-11.1596
▁Kall	-11.1598
ssi	-11.1601
Sim	-11.1601
rank	-11.1602
foot	-11.1605
not	-11.1606
▁anti	-11.1607
▁notabl	-11.1609
▁Con	-11.1611
chip	-11.1617
▁Mal	-11.1621
PK	-11.1622
▁damage	-11.1622
▁14.1	-11.1625
▁cheap	-11.1641
part	-11.1646
76	-11.1646
▁Vii	-11.1647
▁outsourc	-11.1675
lli	-11.1681
production	-11.1682
▁103	-11.1687
CA	-11.1692
UN	-11.1693
2.50	-11.1695
▁Vir	-11.1706
alki	-11.1708
isto	-11.172
▁Gu	-11.1724
▁utilis	-11.1724
▁bodi	-11.1733
▁tap	-11.175
bow	-11.1762
ust	-11.1774
person	-11.178
Baltic	-11.1794
Key	-11.1805
ball	-11.1805
0.01	-11.1806
Contin	-11.1808
Roy	-11.1811
VO	-11.1813
ndex	-11.1814
box	-11.1814
where	-11.1818
Aspo	-11.182
-20	-11.1823
Product	-11.1825
POY	-11.1828
WIG	-11.1833
▁172	-11.1835
rote	-11.184
▁Voima	-11.1846
TEL	-11.1847
book	-11.1847
310	-11.1848
ego	-11.1849
Paper	-11.1852
▁Piet	-11.1855
Barclays	-11.1856
▁Dok	-11.1856
Motor	-11.1856
Most	-11.1856
factor	-11.186
Kemi	-11.1863
Rag	-11.1865
piece	-11.1866
LL	-11.187
▁145.	-11.1873
Qualcomm	-11.1873
▁Jo	-11.1873
treatment	-11.1877
TietoEnator	-11.1878
Price	-11.1879
Micro	-11.188
Upon	-11.188
Tecnomen	-11.188
Production	-11.188
class	-11.1882
8.1	-11.1882
▁rev	-11.1889
.71	-11.1889
power	-11.1889
▁18.3	-11.1891
▁91	-11.1892
SEC	-11.1895
LON	-11.1897
Tikk	-11.1897
know	-11.19
/7	-11.1903
fall	-11.1904
OST	-11.1904
conduct	-11.1906
▁cl	-11.1909
▁16.	-11.1916
ips	-11.1916
Rap	-11.1921
fficien	-11.1923
06	-11.1923
▁subs	-11.1928
▁Financ	-11.1928
An	-11.1935
▁18.	-11.1935
holm	-11.1943
lab	-11.1947
Cost	-11.1948
,...	-11.1951
cel	-11.1952
LSE	-11.1957
▁ever	-11.1959
▁Ar	-11.1961
generat	-11.1965
▁trigger	-11.1966
pring	-11.1967
care	-11.1968
LO	-11.1971
▁Ph	-11.1979
ates	-11.1982
lin	-11.1982
ep	-11.1985
check	-11.1985
vine	-11.1993
▁AME	-11.1997
ailing	-11.1999
Mobile	-11.2009
▁defin	-11.2025
City	-11.2042
▁$5	-11.2043
▁SUV	-11.2043
ell	-11.2045
▁6.0	-11.2051
Tek	-11.2058
ief	-11.2059
Glas	-11.2071
▁Mill	-11.2073
type	-11.2074
▁$2	-11.2075
quare	-11.2079
kil	-11.208
short	-11.208
EL	-11.2085
...",	-11.209
▁Morn	-11.2094
ija	-11.2102
oice	-11.2104
▁Miner	-11.2112
square	-11.212
Change	-11.2123
▁sport	-11.2137
NG	-11.2144
▁Inf	-11.2147
-15	-11.2155
kov	-11.2157
▁siz	-11.2158
▁How	-11.2169
lock	-11.2171
News	-11.2185
CG	-11.219
rena	-11.2193
light	-11.2195
FO	-11.2195
▁Sci	-11.2197
park	-11.2212
OBE	-11.2222
FR	-11.2222
lt	-11.2229
efficienc	-11.2232
Ti	-11.2241
volv	-11.2256
▁Bar	-11.2256
▁discuss	-11.226
ip	-11.2262
▁Fil	-11.2263
call	-11.227
kur	-11.2274
▁Doub	-11.2278
▁alt	-11.2282
ikku	-11.2297
▁exc	-11.2298
tiliz	-11.2302
Re	-11.2304
ards	-11.2305
ZS	-11.2309
YI	-11.2311
rics	-11.2324
ology	-11.2324
▁Amaz	-11.2327
▁specifi	-11.2329
▁Balti	-11.233
holesale	-11.2334
ynamic	-11.2335
zu	-11.2336
▁optimis	-11.2337
nnai	-11.2337
▁Bloomberg	-11.2339
▁Raiffeisen	-11.2339
▁bargain	-11.2339
▁disappear	-11.2339
utkimu	-11.2339
▁Acquire	-11.2339
▁California	-11.2339
▁Downgrade	-11.2339
▁Manchester	-11.2339
▁Sihvo	-11.2339
▁Singapore	-11.2339
▁attribute	-11.2339
▁campaign	-11.2339
▁constitute	-11.2339
▁holiday	-11.2339
▁language	-11.2339
▁perspective	-11.2339
▁purpose	-11.2339
▁rejoicing	-11.2339
▁Hathaway	-11.2339
▁JPMorgan	-11.2339
▁refurbish	-11.2339
▁Acquisition	-11.2339
▁Chicago	-11.2339
▁diversif	-11.2339
▁neighbo	-11.2339
▁pivot	-11.2339
▁Emirate	-11.2339
▁pursuit	-11.2339
▁Angeles	-11.2339
▁StanChart	-11.2339
▁technopark	-11.2339
▁calcin	-11.2339
▁declare	-11.2339
▁Expense	-11.2339
▁warrant	-11.2339
vuokra	-11.2339
▁Statoil	-11.2339
▁barrel	-11.2339
▁occurr	-11.2339
▁pellet	-11.2339
▁Account	-11.2339
▁Aleksan	-11.2339
▁invalid	-11.2339
,687.	-11.2339
▁royalt	-11.2339
▁convergen	-11.2339
▁weather	-11.2339
▁Calif	-11.2339
▁Upgrade	-11.2339
▁Loyal	-11.2339
▁REPORT	-11.2339
▁comfort	-11.2339
▁Program	-11.2339
▁Strength	-11.2339
▁vegetable	-11.2339
▁tighten	-11.2339
GMCR	-11.2339
▁Bullish	-11.2339
NTAP	-11.234
▁Commercial	-11.234
▁judge	-11.234
▁radar	-11.234
UUP	-11.234
▁Resistance	-11.234
▁Trust	-11.234
▁kraft	-11.234
▁intelligen	-11.234
LNKD	-11.234
reasury	-11.234
▁hospital	-11.234
▁CORP	-11.234
▁ignore	-11.234
▁predict	-11.234
▁pharmac	-11.234
▁child	-11.234
▁toxic	-11.234
▁Pelto	-11.234
▁careful	-11.234
▁effort	-11.234
▁rocket	-11.234
▁optimiz	-11.234
▁1,259.	-11.234
▁seminar	-11.2341
▁Transport	-11.2341
▁Approval	-11.2341
INTC	-11.2341
▁Lingus	-11.2341
▁ceramic	-11.2341
▁librar	-11.2341
▁depot	-11.2341
▁2,69	-11.2341
▁confidence	-11.2342
▁outcome	-11.2342
▁NEWS	-11.2342
▁volunt	-11.2342
1,860	-11.2342
▁Setup	-11.2342
ROW	-11.2342
▁Momentum	-11.2342
▁Petro	-11.2342
▁Roger	-11.2342
▁Exxon	-11.2342
▁statistic	-11.2342
▁Bancorp	-11.2342
▁authorisation	-11.2342
▁accuse	-11.2342
▁rallie	-11.2343
▁deep	-11.2343
kept	-11.2343
▁repayment	-11.2343
shadow	-11.2343
▁download	-11.2343
iracle	-11.2344
▁Beverage	-11.2344
▁Deposit	-11.2344
▁Phil	-11.2344
▁hammer	-11.2344
▁crush	-11.2344
▁highlight	-11.2344
▁Dynamic	-11.2344
▁Identi	-11.2345
▁JPM	-11.2345
Initial	-11.2345
▁smart	-11.2345
▁prolong	-11.2345
▁suspend	-11.2345
▁wrong	-11.2345
▁BUY	-11.2345
▁ECB	-11.2345
▁valve	-11.2346
QCO	-11.2346
ols	-11.2347
▁heavy	-11.2347
▁Conver	-11.2347
▁ELI	-11.2347
CSCO	-11.2347
▁Timber	-11.2347
▁gotta	-11.2347
seller	-11.2347
▁offset	-11.2348
ren	-11.2348
▁LT	-11.2348
NKE	-11.2348
▁cider	-11.2349
▁pipettor	-11.2349
▁meltdown	-11.2349
▁clari	-11.2349
▁trust	-11.2349
▁Kallio	-11.235
unction	-11.235
▁Wal	-11.235
▁appar	-11.235
▁Celul	-11.2351
Guard	-11.2352
▁else	-11.2353
▁7,80	-11.2354
▁worse	-11.2354
▁Congr	-11.2354
▁promising	-11.2354
▁5-10	-11.2354
▁Osuusk	-11.2354
▁reward	-11.2356
▁timetable	-11.2356
▁Costco	-11.2357
▁contin	-11.2357
▁Audi	-11.2358
▁Emerging	-11.2358
▁Lyn	-11.2358
▁liabilit	-11.2358
▁termination	-11.2359
▁Warehous	-11.2359
▁exploit	-11.2359
▁270	-11.236
▁salar	-11.236
▁tenant	-11.2361
▁reservation	-11.2361
▁2014	-11.2362
▁Asda	-11.2362
▁Carl	-11.2364
Tallin	-11.2365
▁workflow	-11.2365
▁leav	-11.2366
▁Apr	-11.2367
▁ride	-11.2367
matic	-11.2371
minute	-11.2371
▁survey	-11.2371
▁inspect	-11.2372
▁rebuild	-11.2372
ging	-11.2373
Seven	-11.2373
GK	-11.2374
▁Radi	-11.2375
▁cooperate	-11.2376
date	-11.2376
▁Pertt	-11.2377
▁Beat	-11.2378
▁equal	-11.2378
▁fun	-11.2381
▁excellent	-11.2383
▁permit	-11.2383
▁Positi	-11.2383
▁Law	-11.2384
▁reliab	-11.2384
▁substantially	-11.2385
▁examin	-11.2385
▁32.2	-11.2385
▁SH	-11.2387
▁54	-11.2387
Svy	-11.2388
▁385	-11.2388
▁Refin	-11.2388
VAR	-11.2389
▁treat	-11.2389
▁Sign	-11.2389
ckey	-11.2389
▁pow	-11.239
▁Airline	-11.239
▁360-	-11.2391
▁mega	-11.2391
▁overbought	-11.2392
▁White	-11.2393
▁Train	-11.2394
,556	-11.2395
▁beverage	-11.2397
▁Munic	-11.2397
▁Low	-11.2398
qX	-11.24
▁Lake	-11.24
▁Agreed	-11.2401
▁2016	-11.2401
▁Fall	-11.2404
▁Pap	-11.2404
▁2014,	-11.2405
OVA	-11.2406
▁Alu	-11.2406
venue	-11.2407
restrict	-11.2408
UBS	-11.2409
▁interconnect	-11.241
uel	-11.241
LAN	-11.2412
DAY	-11.2413
▁DJ	-11.2414
▁(+4.	-11.2415
▁24.	-11.2415
urse	-11.2417
▁resort	-11.242
qh	-11.242
▁casting	-11.2421
9.00	-11.2422
▁jet	-11.2423
▁cellul	-11.2425
▁3,1	-11.2426
▁lender	-11.2427
▁Nikk	-11.2429
38.1	-11.2429
markk	-11.2429
▁PDA	-11.243
JD	-11.243
litre	-11.2432
▁NPS	-11.2433
▁march	-11.2433
CF	-11.2433
▁speak	-11.2435
▁consent	-11.2435
▁feel	-11.2436
▁16.1	-11.2436
mina	-11.2437
▁Whit	-11.2438
▁logg	-11.2439
▁foundation	-11.2441
▁tweet	-11.2443
▁14:	-11.2444
Do	-11.2445
▁2017	-11.2449
▁hunt	-11.2449
FN	-11.245
▁cit	-11.2452
▁Gran	-11.2452
▁12:	-11.2453
▁converter	-11.2455
▁Signal	-11.2455
ainful	-11.2459
▁MAP	-11.246
▁23.4	-11.2461
▁gate	-11.2461
▁resolution	-11.2461
▁BULL	-11.2461
▁Unilever	-11.2462
▁56.5	-11.2463
▁nicely	-11.2463
▁Pearson	-11.2463
▁click	-11.2463
▁wave	-11.2465
▁1,800	-11.2466
▁213	-11.2466
▁Full	-11.2467
runner	-11.2468
▁wholesaler	-11.2469
▁presentation	-11.2473
BC	-11.2475
▁Again	-11.2481
akari	-11.2481
▁ACA	-11.2481
▁27.7	-11.2483
!!!	-11.2483
▁Eng	-11.2483
▁innovation	-11.2484
▁BPI	-11.2484
▁Breaking	-11.2491
▁View	-11.2491
▁Approve	-11.2493
▁gla	-11.2494
▁Lovi	-11.2496
YE	-11.2497
▁Island	-11.2498
▁131	-11.2499
▁28.6	-11.2501
▁Kaunis	-11.2502
▁Motor	-11.2503
obi	-11.2505
KES	-11.2507
hind	-11.2507
ff	-11.2509
ULT	-11.251
lags	-11.251
▁$100	-11.2514
▁Kemij	-11.2516
▁Added	-11.2519
hana	-11.2521
▁admi	-11.2523
ics	-11.2523
ortu	-11.2525
▁launche	-11.2527
▁misses	-11.2528
▁worries	-11.2528
▁contra	-11.2531
▁BioT	-11.2531
▁Provide	-11.2531
▁baker	-11.2534
▁Tuom	-11.2535
▁MARA	-11.2537
9,36	-11.254
▁Arm	-11.2543
▁540	-11.2546
TIK	-11.2549
xposure	-11.2552
99	-11.2554
▁Pri	-11.2557
▁Avi	-11.2558
MH	-11.2559
▁Came	-11.2562
▁Expect	-11.2571
▁$32	-11.2572
rules	-11.2572
pc	-11.2572
artis	-11.2572
fP	-11.2573
CR	-11.2574
▁22.5	-11.2574
▁93.	-11.2575
▁534	-11.2576
▁apart	-11.2577
XM	-11.2579
▁done	-11.258
37.4	-11.2581
▁Brist	-11.2583
▁master	-11.2589
ong	-11.2591
▁committee	-11.2597
▁CAD	-11.26
57	-11.26
XE	-11.2603
aw	-11.2607
▁.03	-11.2609
▁excit	-11.261
▁23,3	-11.2611
▁nation	-11.2613
▁white	-11.2621
▁mount	-11.2624
▁Bun	-11.2625
▁electri	-11.2627
▁broken	-11.2629
lph	-11.2631
spira	-11.2631
▁470	-11.2633
▁reve	-11.2633
▁valuation	-11.2633
▁choos	-11.2641
.89	-11.2652
pri	-11.2653
▁OUT	-11.2654
▁JSC	-11.2654
▁Met	-11.2655
NP	-11.2655
NUG	-11.2655
▁rig	-11.2655
▁Sum	-11.2664
▁$700	-11.2665
▁soar	-11.2666
VD	-11.2668
▁JP	-11.2671
▁21.	-11.2675
artel	-11.2681
▁technological	-11.2681
▁beside	-11.2684
udget	-11.2685
▁4.4	-11.2689
CC	-11.2691
330	-11.2692
▁dead	-11.2692
▁Insurer	-11.2698
▁7,8	-11.2701
mber	-11.2702
▁appro	-11.2706
▁47.5	-11.2707
echnical	-11.2708
▁Qua	-11.2709
▁fe	-11.2714
▁nitr	-11.2714
▁sight	-11.2716
zq	-11.2716
▁collaborat	-11.2716
▁Bur	-11.2717
0.1	-11.272
▁25.5	-11.272
▁CS	-11.2722
▁ch	-11.2728
▁Talo	-11.2734
▁purchas	-11.2734
64.1	-11.2736
pter	-11.2736
▁boot	-11.2739
bl	-11.2751
,538	-11.2752
▁Fish	-11.2763
▁SS	-11.2771
kone	-11.2771
▁93	-11.2778
▁links	-11.2778
▁Lans	-11.2778
vV	-11.2782
▁Cont	-11.2782
▁Kost	-11.2783
RIM	-11.2784
▁Wind	-11.2784
9.5	-11.2785
KY	-11.2794
asis	-11.2795
win	-11.2799
▁dos	-11.28
▁stri	-11.2806
▁Walk	-11.2807
Dec	-11.281
▁talking	-11.2811
ALLI	-11.2813
GW	-11.2819
CTO	-11.282
ownside	-11.282
▁package	-11.2826
▁impu	-11.283
duct	-11.2832
▁LEE	-11.2832
cing	-11.2833
ilja	-11.2836
▁piece	-11.2836
▁slam	-11.2836
▁Lee	-11.2837
▁Cit	-11.2846
IGHT	-11.2852
▁Aero	-11.2853
▁pc	-11.2856
ase	-11.2864
▁founder	-11.2867
opi	-11.287
▁spin	-11.2871
▁ci	-11.2871
▁Cable	-11.2873
▁Worker	-11.2876
▁decorati	-11.2878
▁Play	-11.288
▁Fa	-11.2883
dell	-11.2885
▁advise	-11.2886
▁faste	-11.2892
coming	-11.2892
ked	-11.2894
▁Hans	-11.2899
▁tape	-11.2903
▁10:3	-11.2905
▁$64	-11.2909
IET	-11.2913
▁hod	-11.2914
xis	-11.2915
ampo	-11.2915
har	-11.2922
nough	-11.2924
value	-11.2927
▁tur	-11.2927
QI	-11.2928
▁19.	-11.293
▁MS	-11.2935
▁14.0	-11.2945
▁-0.	-11.2947
▁.40	-11.2948
▁Investors	-11.2953
▁Won	-11.2955
732	-11.2957
▁door	-11.2961
achi	-11.2962
oration	-11.2965
we	-11.2967
vill	-11.2973
-25	-11.2979
inked	-11.298
GL	-11.2984
ullback	-11.2985
mp	-11.2989
▁12.9	-11.2994
▁Volu	-11.2995
.01	-11.3001
rough	-11.3018
▁SAM	-11.3019
▁LP	-11.3022
▁Maritim	-11.3025
550	-11.3037
▁Lan	-11.3039
lled	-11.3041
▁sound	-11.3044
ury	-11.3048
efi	-11.3052
ternational	-11.3059
makers	-11.3061
BAB	-11.3063
fiz	-11.3064
▁west	-11.3065
▁annu	-11.3068
hJ	-11.3074
▁Mac	-11.3075
▁sma	-11.308
petit	-11.3081
aff	-11.3083
raphic	-11.3086
▁10.2	-11.3087
▁cheape	-11.309
▁correl	-11.3098
▁Trad	-11.3104
ON	-11.3105
ONT	-11.3111
▁damag	-11.3111
▁dry	-11.3119
cement	-11.3133
ube	-11.3134
port	-11.3139
29.8	-11.314
erland	-11.3141
xes	-11.3142
▁collecti	-11.3146
jan	-11.3147
astam	-11.3147
ahi	-11.3148
92	-11.3153
RAP	-11.3155
XS	-11.3156
ue	-11.3158
nag	-11.3161
▁arrive	-11.3163
rd	-11.3167
tur	-11.3171
ister	-11.3173
▁ra	-11.3182
▁proto	-11.319
ire	-11.3196
31	-11.3197
▁bow	-11.3197
▁$1	-11.3199
▁Bor	-11.3203
▁Anne	-11.3208
▁fl	-11.3216
HT	-11.3219
▁v	-11.3222
cker	-11.3228
▁Seat	-11.3232
Rake	-11.3233
▁eco	-11.3234
armo	-11.3252
OVE	-11.3253
▁Station	-11.3255
OMEN	-11.326
5.,	-11.3261
▁Sche	-11.3262
olding	-11.3262
179	-11.3276
ile	-11.3281
nnus	-11.3282
▁33.	-11.3283
und	-11.3284
trand	-11.3297
SOD	-11.3304
▁Sab	-11.3316
bb	-11.3319
▁Kro	-11.3327
▁30.8	-11.3336
▁hang	-11.3341
10.6	-11.3344
bear	-11.3351
▁Win	-11.3351
ull	-11.3363
▁74	-11.3369
ical	-11.3371
▁Cost	-11.338
YN	-11.3385
And	-11.3386
.50	-11.339
inat	-11.3396
▁inaugurate	-11.34
▁Jam	-11.3408
IO	-11.3413
▁overla	-11.3417
▁rank	-11.3433
▁Sente	-11.3445
rban	-11.3449
SSA	-11.3451
MAN	-11.3454
anned	-11.3466
ins	-11.3466
▁hire	-11.3466
Qj	-11.3472
▁bidd	-11.3474
ves	-11.3475
▁134	-11.3476
▁approv	-11.3477
vin	-11.3478
zi	-11.3486
▁18.7	-11.3498
SP	-11.3499
TJ	-11.35
▁Aer	-11.35
▁Gas	-11.35
Metsa	-11.3506
▁style	-11.3506
▁31.1	-11.3507
▁SEP	-11.3511
BX	-11.3515
ism	-11.3519
▁71	-11.3522
Alpin	-11.3536
mpu	-11.3543
2.49	-11.3544
9,200	-11.3571
275	-11.3575
▁15.0	-11.3579
▁Tap	-11.3587
ero	-11.3588
▁Tan	-11.3589
kyo	-11.3591
ag	-11.3591
▁7,	-11.3597
▁Polic	-11.3597
bin	-11.3598
▁forma	-11.3607
▁article	-11.361
▁sho	-11.3612
FA	-11.3628
IN	-11.3635
▁thin	-11.3638
rage	-11.3641
ving	-11.3642
hi	-11.3643
veri	-11.3652
▁2",	-11.3657
,51	-11.3658
bbl	-11.3658
▁accumulate	-11.366
▁Juni	-11.3663
nder	-11.3665
▁Sy	-11.3666
iste	-11.3672
nal	-11.3683
onda	-11.3695
▁Det	-11.3696
utlook	-11.3696
▁8.0	-11.3698
lier	-11.3707
88	-11.3711
TK	-11.3711
EE	-11.3712
▁featur	-11.3712
.65	-11.3716
▁rough	-11.3724
▁funding	-11.3729
▁row	-11.3759
▁adopt	-11.3771
▁SU	-11.3776
▁ING	-11.3781
▁3:	-11.3798
▁..	-11.3798
▁Tri	-11.38
PM	-11.3814
tri	-11.3814
63.6	-11.3814
IY	-11.3815
609	-11.3821
▁caller	-11.3822
▁imag	-11.3824
Broke	-11.3842
▁Mc	-11.3847
ealthcare	-11.3852
rane	-11.3856
▁Premi	-11.3864
▁9-	-11.3874
▁Pal	-11.3886
▁Pla	-11.3888
0.7	-11.3901
IRI	-11.3906
▁9,5	-11.3907
▁200-	-11.3913
▁91.	-11.3929
▁beca	-11.3933
almi	-11.3933
▁magneti	-11.3934
,530	-11.3939
rk	-11.394
▁Let	-11.3941
uli	-11.3955
boy	-11.3961
▁Found	-11.3965
▁thir	-11.3971
▁Area	-11.3976
▁18.8	-11.3984
earch	-11.3994
ele	-11.3996
▁154.	-11.3997
▁Gla	-11.3998
▁457	-11.4002
▁lega	-11.4004
▁12,8	-11.4006
▁Tallin	-11.4011
▁derive	-11.4021
SING	-11.4027
JF	-11.404
▁relocat	-11.4044
Cen	-11.4046
cally	-11.405
sive	-11.4053
niversiti	-11.4054
ters	-11.406
ju	-11.406
ares	-11.4064
▁Los	-11.4064
▁promot	-11.407
polit	-11.4071
Quarter	-11.4072
WM	-11.4073
val	-11.4085
pond	-11.4091
▁qua	-11.4092
wan	-11.4099
ali	-11.4117
xpress	-11.412
▁lose	-11.412
mass	-11.4132
▁pla	-11.4133
▁But	-11.4147
▁Sara	-11.4148
▁cro	-11.4148
election	-11.4149
elve	-11.416
0.37	-11.4166
▁inside	-11.4173
.49	-11.4175
XX	-11.4178
▁Wy	-11.418
Ou	-11.4187
▁propos	-11.4195
▁Pur	-11.4196
▁Wo	-11.4236
Gui	-11.4254
▁inclu	-11.4264
mitte	-11.4266
▁Ostr	-11.4276
1.70	-11.4277
▁Patri	-11.4297
ius	-11.4309
▁30-	-11.4311
▁86	-11.4315
▁don	-11.4316
50.5	-11.4318
▁Abo	-11.4319
LC	-11.4322
3.3	-11.4326
rig	-11.4329
▁162.	-11.4338
▁investigate	-11.4351
▁Pear	-11.4352
▁uni	-11.4352
▁mil	-11.4358
scre	-11.4359
lew	-11.4362
8,1	-11.4366
▁Gill	-11.4372
FF	-11.4372
ula	-11.4381
Ma	-11.4384
▁wo	-11.4388
▁Sta	-11.4396
▁Jor	-11.4407
las	-11.4411
abl	-11.4423
12.2	-11.4427
▁68	-11.4431
▁Sin	-11.4447
▁corre	-11.4457
wee	-11.4458
▁organize	-11.4465
5.3	-11.4497
▁resid	-11.4497
ttle	-11.4497
.00	-11.4516
30/	-11.4524
lg	-11.4524
rain	-11.4526
▁dr	-11.4551
▁lab	-11.4556
▁RI	-11.4562
▁expir	-11.4573
Mar	-11.4586
▁241.	-11.4619
Liis	-11.4623
1.46	-11.4624
▁AND	-11.4635
600	-11.4653
▁81	-11.4654
elements	-11.4676
▁employer	-11.4677
▁EE	-11.4678
FD	-11.4686
BG	-11.4696
▁repai	-11.4697
▁Heat	-11.4697
▁.04	-11.4697
▁9.2	-11.4699
▁sco	-11.4702
▁ST	-11.4702
ANS	-11.4712
▁desc	-11.4729
▁closes	-11.4735
▁Reg	-11.4756
▁Industri	-11.4757
rry	-11.476
actor	-11.4783
▁pai	-11.4794
▁949	-11.4802
▁atten	-11.481
▁bet	-11.4814
his	-11.4817
▁Nik	-11.4824
nvoice	-11.4828
▁investigat	-11.4829
bba	-11.4836
ourt	-11.4838
▁dose	-11.4845
investing	-11.4865
ore	-11.4865
ems	-11.4866
0.02	-11.4868
De	-11.4873
▁trace	-11.4878
▁Shi	-11.4882
osition	-11.4904
▁Bj	-11.4905
ely	-11.4909
▁15.3	-11.4922
look	-11.4922
nos	-11.4923
▁surfe	-11.4925
DW	-11.494
▁tas	-11.4943
▁137.	-11.4963
▁37.	-11.4978
▁int	-11.4985
AY	-11.4986
27.8	-11.499
95	-11.4995
abba	-11.4997
MR	-11.5003
▁sources	-11.501
vala	-11.5014
▁uncertain	-11.5019
▁her	-11.5021
storey	-11.5034
▁acc	-11.5043
nline	-11.5059
▁shed	-11.5078
hose	-11.5098
ize	-11.5118
advi	-11.5126
pi	-11.5129
▁165	-11.5137
▁autom	-11.5141
▁Get	-11.5152
ars	-11.5154
▁350	-11.5155
▁Kri	-11.5166
NI	-11.517
157	-11.5172
▁Trend	-11.5185
▁78	-11.5192
▁art	-11.5195
apped	-11.5196
▁municipal	-11.521
▁concerns	-11.5219
▁Dege	-11.5226
NE	-11.5238
pro	-11.5254
ntel	-11.5262
▁Rais	-11.5267
ikl	-11.5269
▁leg	-11.5275
PC	-11.528
far	-11.5282
▁commissione	-11.5283
llar	-11.5299
▁connecti	-11.5299
▁dec	-11.5301
▁dep	-11.5316
▁visi	-11.5328
lobal	-11.5329
▁240	-11.5336
.02.20	-11.5344
▁2.	-11.5351
orf	-11.5353
eyword	-11.5357
▁Aho	-11.5375
handle	-11.5375
rou	-11.5376
▁160	-11.5395
lity	-11.5412
ranchis	-11.5414
ert	-11.5416
row	-11.5417
zY	-11.5424
ika	-11.5428
acco	-11.5443
▁centr	-11.5456
▁syndicat	-11.5458
▁Sui	-11.5459
anza	-11.5459
▁9.	-11.5465
▁Saari	-11.5467
▁Deer	-11.5479
Nu	-11.5486
.02	-11.5498
iz	-11.5506
ays	-11.551
bs	-11.5521
vice	-11.5525
YA	-11.5529
fold	-11.553
5.1	-11.5534
ound	-11.5544
2,	-11.5553
▁Pack	-11.5562
rr	-11.5566
TER	-11.5569
▁44.	-11.5572
ERS	-11.5579
period	-11.558
▁Pl	-11.5588
▁contractor	-11.5608
ergen	-11.5615
eri	-11.5615
▁rel	-11.5618
▁Wa	-11.5621
ummi	-11.5623
ises	-11.5624
▁Mi	-11.563
▁Fen	-11.563
ency	-11.5644
).	-11.5655
xa	-11.5671
pute	-11.5673
▁Mik	-11.5675
▁Las	-11.5675
▁ow	-11.5679
▁Mea	-11.5681
54	-11.569
▁depart	-11.57
tern	-11.5702
.67	-11.5711
builder	-11.5729
ization	-11.5733
Po	-11.5749
8.2	-11.5752
SW	-11.5754
ntry	-11.5755
lle	-11.5763
▁Flo	-11.5779
▁$3	-11.5779
ova	-11.5788
QT	-11.5809
..,	-11.5816
oxi	-11.5823
RX	-11.5843
▁Gra	-11.5863
BF	-11.5871
eve	-11.5883
cr	-11.5884
alu	-11.5886
pare	-11.5889
http	-11.5903
UE	-11.5904
▁bigg	-11.5907
▁ton	-11.5926
tar	-11.5928
Qf	-11.5931
zza	-11.5933
bac	-11.5938
ination	-11.5939
▁Count	-11.5957
ternal	-11.5959
business	-11.5962
▁Change	-11.5964
▁Ostro	-11.597
Cargo	-11.5972
lved	-11.5987
▁Doku	-11.599
verage	-11.5996
.75	-11.6001
▁Ang	-11.6005
▁12/	-11.6007
get	-11.6015
▁inclusi	-11.6015
▁eas	-11.6016
kki	-11.6019
cz	-11.6023
▁inject	-11.603
▁structur	-11.6031
▁She	-11.6033
colla	-11.6044
▁Inno	-11.6045
▁Tum	-11.6058
▁Rose	-11.6062
▁chip	-11.6064
ional	-11.607
▁est	-11.6071
,256	-11.6101
▁Jul	-11.6101
▁Fire	-11.6102
▁Cut	-11.6115
uka	-11.6117
isco	-11.6119
rhu	-11.6132
▁invoic	-11.6141
▁Ant	-11.6172
▁prim	-11.6174
kt	-11.6174
vaa	-11.6181
Tu	-11.6183
FH	-11.6189
▁!	-11.6219
▁hosti	-11.6221
▁CF	-11.6228
▁Bal	-11.6229
▁TL	-11.6236
TN	-11.6237
git	-11.6249
▁sk	-11.625
▁spec	-11.6253
▁320	-11.6273
nc	-11.6276
▁demonstrate	-11.6277
AST	-11.6277
▁253	-11.6277
VM	-11.6279
▁inaugura	-11.6284
wM	-11.6296
ulp	-11.6308
▁deals	-11.6312
fuell	-11.6313
AX	-11.6316
ode	-11.6327
▁mini	-11.6333
qua	-11.6333
▁administ	-11.6353
▁"-	-11.6356
Mag	-11.6358
7.6	-11.6362
▁102.	-11.6372
WF	-11.638
,321	-11.6385
source	-11.6389
po	-11.6393
▁propo	-11.6396
ID	-11.6399
▁Inge	-11.6401
▁Por	-11.6401
▁commen	-11.6402
media	-11.6411
▁$25	-11.6415
Bank	-11.6416
▁Compa	-11.6418
▁initiat	-11.6428
▁fire	-11.6471
▁disposa	-11.6474
atta	-11.6474
mium	-11.6474
2005	-11.6474
rise	-11.6474
road	-11.6481
du	-11.6483
mall	-11.6503
dy	-11.651
ack	-11.652
tinen	-11.6521
73.4	-11.6523
▁Eth	-11.6526
price	-11.653
hard	-11.6537
▁gam	-11.6539
dis	-11.6539
▁inf	-11.6543
▁Come	-11.6545
agreement	-11.655
▁automate	-11.6551
▁Dor	-11.6552
ams	-11.6559
plays	-11.6565
ron	-11.6567
▁topp	-11.6569
▁downt	-11.6575
▁Rene	-11.658
▁hop	-11.6587
▁Len	-11.659
process	-11.6597
una	-11.6601
▁47.	-11.6606
lome	-11.6612
CEO	-11.6621
0.2	-11.6622
▁rout	-11.6624
ved	-11.6626
under	-11.6629
STU	-11.663
',	-11.6635
GHT	-11.6636
lower	-11.6638
reg	-11.6639
▁commit	-11.6645
rrupt	-11.6647
Car	-11.6654
merging	-11.666
Pol	-11.6663
Meg	-11.6676
perform	-11.6682
PH	-11.6685
0.5	-11.6687
unta	-11.6701
▁Tak	-11.6701
Joe	-11.6704
Finance	-11.6706
▁margins	-11.6708
rol	-11.6708
China	-11.6709
world	-11.671
▁Secur	-11.6713
▁execut	-11.6714
los	-11.6724
Stock	-11.673
Nov	-11.6732
REC	-11.6734
▁Cast	-11.674
GOL	-11.6742
winning	-11.6743
▁73	-11.675
Kai	-11.6751
▁bul	-11.6752
trade	-11.6766
IV	-11.6772
▁populat	-11.6774
Insurer	-11.678
week	-11.678
Sanoma	-11.6781
buil	-11.6781
organic	-11.6786
▁vo	-11.6796
Star	-11.68
Antti	-11.6801
ban	-11.6803
European	-11.6804
▁58.	-11.6809
worth	-11.6811
fully	-11.6811
friend	-11.6812
plumb	-11.6814
investors	-11.6818
▁inaugurat	-11.6818
▁Latvi	-11.6823
SABMiller	-11.6825
Name	-11.6827
Agricultur	-11.6831
yman	-11.6832
jas	-11.6832
Strong	-11.6837
Sepp	-11.6838
▁122	-11.6838
gan	-11.6839
London	-11.6841
German	-11.6844
Order	-11.6846
bullish	-11.6847
JSC	-11.685
chemical	-11.685
daily	-11.6851
NASDAQ	-11.6852
Base	-11.6852
India	-11.6857
Life	-11.6858
Proha	-11.686
Aug	-11.6862
nu	-11.6862
Should	-11.6862
Consolidate	-11.6862
Digi	-11.6864
name	-11.6865
Street	-11.6865
▁36.	-11.6865
Engineer	-11.6868
Royal	-11.6869
Target	-11.687
Com	-11.687
First	-11.6871
field	-11.6875
▁Analy	-11.6875
channel	-11.6876
pel	-11.688
You	-11.688
Bud	-11.6881
Telecom	-11.6882
Tyrv	-11.6882
patent	-11.6882
Citi	-11.6884
invest	-11.6885
TO	-11.6887
Mega	-11.6889
play	-11.6891
Chart	-11.6891
register	-11.6892
strength	-11.6893
LNG	-11.6894
slo	-11.6896
fund	-11.6898
Ce	-11.6899
Manag	-11.6902
Wind	-11.6903
Shire	-11.6906
Auto	-11.6907
tank	-11.6907
MM	-11.6909
▁Lem	-11.6914
25.1	-11.6914
invoice	-11.6916
BK	-11.6918
space	-11.6919
Amer	-11.692
Bene	-11.6924
NA	-11.6927
620	-11.6928
ev	-11.6928
Talvi	-11.6934
ders	-11.6935
▁Ch	-11.6937
▁experienc	-11.694
East	-11.6941
JP	-11.6944
▁analy	-11.6947
▁10.3	-11.6948
ounds	-11.695
▁$$	-11.695
Some	-11.6955
Clo	-11.6963
drop	-11.6966
fast	-11.6971
▁Number	-11.6973
▁Innovation	-11.6973
▁fly	-11.6974
Sun	-11.6975
suit	-11.6977
Loss	-11.6982
▁consulta	-11.6983
food	-11.6986
No	-11.6987
460	-11.6991
annu	-11.6994
▁band	-11.6999
brand	-11.6999
59.3	-11.7001
180	-11.7004
card	-11.7006
ima	-11.7013
OL	-11.7016
That	-11.7018
minar	-11.7019
OUT	-11.7026
▁Expo	-11.7027
RAD	-11.7033
eral	-11.7033
▁Activi	-11.7036
▁IC	-11.704
hon	-11.7043
▁22.	-11.7044
0.0	-11.7047
160	-11.7053
▁190	-11.7056
▁compete	-11.7058
Gro	-11.7061
Deal	-11.7067
▁Telem	-11.7068
trategy	-11.7071
▁die	-11.7073
▁29,0	-11.7081
▁sin	-11.7087
atus	-11.7089
oja	-11.7096
reas	-11.7098
▁worrie	-11.7099
ans	-11.71
Lassi	-11.7104
rum	-11.7104
▁Sano	-11.7107
▁flo	-11.7116
▁gene	-11.7116
▁determine	-11.712
▁occup	-11.7122
▁1-2	-11.7126
▁fulfil	-11.7127
ario	-11.7132
gree	-11.7138
Alto	-11.714
equip	-11.7143
▁prote	-11.7149
▁By	-11.7149
▁trip	-11.7154
▁15.9	-11.7159
▁claim	-11.7161
▁81.	-11.7162
▁recommen	-11.7167
655	-11.717
count	-11.7186
arriage	-11.719
▁PA	-11.72
▁publ	-11.7205
Fro	-11.7205
set	-11.721
jk	-11.7212
lux	-11.7213
▁Bah	-11.7218
▁205	-11.7219
▁dealer	-11.7222
holder	-11.7223
▁me	-11.7223
▁appeal	-11.7225
▁commun	-11.7226
▁1,7	-11.7232
KP	-11.7232
fish	-11.7235
▁Lead	-11.7238
▁observe	-11.7239
ease	-11.724
▁confirm	-11.7241
ntly	-11.7255
irc	-11.7256
fac	-11.7258
▁Ope	-11.7261
▁scrap	-11.7262
cular	-11.7262
▁info	-11.7269
▁harvest	-11.7277
otine	-11.7277
AMA	-11.7277
.77	-11.7277
IK	-11.728
igator	-11.7281
▁174	-11.7282
▁delay	-11.7282
ddle	-11.7283
▁69	-11.7283
198	-11.7288
omorrow	-11.7289
nki	-11.73
▁mete	-11.73
▁famil	-11.7304
▁3,0	-11.7309
▁Med	-11.7309
gical	-11.7309
▁surve	-11.731
▁polic	-11.731
GPR	-11.731
▁Dai	-11.7317
CAT	-11.732
apital	-11.7322
▁miss	-11.7322
▁hedg	-11.7322
▁allocat	-11.7324
▁Innova	-11.7324
▁critic	-11.7326
djustment	-11.733
▁blo	-11.733
ertifi	-11.7331
emporar	-11.7331
rant	-11.7333
▁radi	-11.7334
▁Canad	-11.7335
▁Machine	-11.7336
▁confiden	-11.7336
▁intensi	-11.7338
▁Flexi	-11.7338
▁govern	-11.7339
Hgv	-11.7339
▁Inovio	-11.7339
▁Regulator	-11.7339
▁SUBSCRI	-11.7339
▁TalkTalk	-11.7339
▁Treatment	-11.7339
110.20	-11.7339
ACInvestorBlog	-11.7339
Argentin	-11.7339
CaixaBank	-11.7339
HeDies	-11.7339
Luxembourg	-11.7339
RatingsNetwork	-11.7339
StockTwits	-11.7339
WIRE	-11.7339
biotech	-11.7339
olytechnic	-11.7339
rojekti	-11.7339
▁1944757-4	-11.7339
▁Cadbury	-11.7339
▁Caixabank	-11.7339
▁Lietuv	-11.7339
▁Partihallsf	-11.7339
▁Skandinavi	-11.7339
▁Supermarket	-11.7339
▁Supervisor	-11.7339
▁Trojan	-11.7339
▁Vehicles	-11.7339
▁accomplish	-11.7339
▁bathroom	-11.7339
▁biscuit	-11.7339
▁configur	-11.7339
▁envisage	-11.7339
▁geometric	-11.7339
▁kaupunki	-11.7339
▁knives	-11.7339
▁manipulat	-11.7339
▁motorcyclist	-11.7339
▁pharmacokinetic	-11.7339
▁recipient	-11.7339
▁rehabilitati	-11.7339
▁retreats	-11.7339
▁surpass	-11.7339
▁Alphabet	-11.7339
▁underperf	-11.7339
Typical	-11.7339
energosbyt	-11.7339
▁Abramov	-11.7339
▁Enefit	-11.7339
▁Gazprom	-11.7339
▁Guinea	-11.7339
▁Rakvere	-11.7339
▁UMTS	-11.7339
▁hurdle	-11.7339
▁microwave	-11.7339
▁reinforce	-11.7339
▁rumours	-11.7339
▁turbine	-11.7339
Vehvil	-11.7339
▁McDonald	-11.7339
▁TYRV	-11.7339
▁Excellen	-11.7339
▁rebuff	-11.7339
▁megawatt	-11.7339
hivaku	-11.7339
Advisor	-11.7339
Intuitiv	-11.7339
▁keylogg	-11.7339
▁Inventor	-11.7339
▁Zahar	-11.7339
▁dramatic	-11.7339
▁Natural	-11.7339
▁Velta	-11.7339
▁hydrocarbon	-11.7339
▁Egypt	-11.7339
▁convenien	-11.7339
▁amazing	-11.7339
▁dissolve	-11.7339
▁Club	-11.7339
▁barley	-11.7339
▁Commodit	-11.7339
▁departures	-11.7339
▁1995-200	-11.7339
▁explosive	-11.7339
▁Appoint	-11.7339
▁Climb	-11.7339
▁Iceland	-11.7339
lump	-11.7339
▁Multi	-11.7339
▁twenty	-11.7339
▁rationaliz	-11.7339
▁suburb	-11.7339
▁Welcome	-11.7339
▁calibrat	-11.7339
▁Jeff	-11.7339
▁Material	-11.7339
▁Computer	-11.7339
Actelion	-11.734
▁rubber	-11.734
▁-0.47%	-11.734
▁RoRo	-11.734
▁CompaniesDi	-11.734
▁Future	-11.734
▁justifie	-11.734
nominat	-11.734
▁ANAL	-11.734
▁streak	-11.734
▁exempt	-11.734
avista	-11.734
▁micro	-11.734
ICOA	-11.734
▁interaction	-11.734
▁kick	-11.734
Mantsala	-11.734
▁empty	-11.734
▁penny	-11.734
▁realistic	-11.734
▁avoid	-11.734
Ackman	-11.734
stretche	-11.734
▁Mylan	-11.734
▁Betoni	-11.734
""""	-11.734
▁..$1	-11.7341
▁Merchant	-11.7341
GRPN	-11.7341
▁hoist	-11.7341
▁Walden	-11.7341
▁minister	-11.7341
Speak	-11.7341
▁VWAP	-11.7341
▁disease	-11.7341
▁Mylly	-11.7341
Origin	-11.7341
▁Percent	-11.7341
▁churn	-11.7341
tournament	-11.7341
▁Blue	-11.7341
TRIP	-11.7341
▁Banco	-11.7341
▁modif	-11.7341
▁praise	-11.7341
rothious	-11.7341
isturb	-11.7341
▁Johan	-11.7341
▁Dollar	-11.7342
▁blood	-11.7342
▁Therap	-11.7342
▁resilien	-11.7342
▁photo	-11.7342
▁title	-11.7342
▁crack	-11.7342
▁Panama	-11.7342
▁Remain	-11.7342
DDD	-11.7343
▁crazy	-11.7343
▁Entrepren	-11.7343
▁signature	-11.7343
▁remind	-11.7343
▁convinc	-11.7343
▁intact	-11.7343
▁withdraw	-11.7343
▁pump	-11.7343
▁casual	-11.7343
egetable	-11.7344
▁Chamber	-11.7344
Vegas	-11.7344
DJI	-11.7344
▁HIGHS	-11.7344
▁Kolk	-11.7344
▁Oversold	-11.7344
▁privat	-11.7344
▁submit	-11.7344
essag	-11.7344
▁Facts	-11.7344
▁Hyun	-11.7345
directional	-11.7345
▁CONF	-11.7345
▁adult	-11.7345
▁verif	-11.7345
▁Kauha	-11.7345
▁TELE	-11.7345
TML	-11.7346
▁advice	-11.7346
▁Infra	-11.7346
▁Multimedia	-11.7347
▁Conferences	-11.7347
▁workshop	-11.7347
▁wkly	-11.7347
▁URL	-11.7347
▁underperform	-11.7347
▁Bears	-11.7347
tronic	-11.7348
▁comparative	-11.7348
▁flush	-11.7348
▁Settlement	-11.7348
cumulat	-11.7348
▁comparison	-11.7349
▁DNA	-11.7349
▁Budget	-11.7349
▁Beck	-11.7349
▁Agreement	-11.7349
▁stamp	-11.7349
▁retest	-11.7349
▁brick	-11.7349
INTER	-11.7349
▁confirmation	-11.7349
▁sentiment	-11.735
▁Admi	-11.735
PNC	-11.735
▁Flat	-11.735
▁94.	-11.735
▁Editor	-11.735
▁coordinate	-11.735
rtsil	-11.735
lumbi	-11.7351
▁possibility	-11.7351
▁Heart	-11.7351
▁Teva	-11.7352
▁labor	-11.7352
LLY	-11.7352
OUTH	-11.7353
▁Read	-11.7354
▁gather	-11.7354
▁anchor	-11.7354
▁Nils	-11.7354
brew	-11.7354
▁Vosto	-11.7354
▁trendline	-11.7354
▁brisk	-11.7355
linja	-11.7355
▁AXA	-11.7356
▁Print	-11.7356
▁Explor	-11.7356
▁bullet	-11.7356
▁Innovator	-11.7357
▁Aalto	-11.7357
XPE	-11.7358
▁$104	-11.7358
▁7,85	-11.7358
▁restart	-11.7358
▁Zain	-11.7359
▁Term	-11.736
cZa	-11.736
▁Hint	-11.736
▁candle	-11.736
▁Resum	-11.736
WN	-11.7361
▁10-15	-11.7361
▁clock	-11.7361
▁allocation	-11.7361
▁investigation	-11.7361
▁Thought	-11.7362
▁Rules	-11.7362
▁dozen	-11.7362
aterin	-11.7362
REA	-11.7363
▁Manty	-11.7363
▁convi	-11.7363
▁Camp	-11.7363
▁render	-11.7363
▁Mount	-11.7363
▁Surge	-11.7363
7.00	-11.7364
CALL	-11.7364
▁Fixed	-11.7365
▁anything	-11.7365
▁premarket	-11.7365
congrats	-11.7366
▁everyday	-11.7366
▁bump	-11.7366
CX	-11.7367
▁text	-11.7367
▁+3%	-11.7368
▁Large	-11.7369
▁buyback	-11.737
▁Interfa	-11.7371
▁Soko	-11.7371
▁steam	-11.7372
▁Simon	-11.7373
EXAS	-11.7374
▁Volo	-11.7375
6,29	-11.7375
▁Chase	-11.7375
▁identify	-11.7376
▁Hike	-11.7376
▁steadies	-11.7376
▁simul	-11.7377
▁therap	-11.7377
.....	-11.7377
commerc	-11.7377
energo	-11.7378
▁Oras	-11.7378
▁beaten	-11.7378
▁Crit	-11.7379
▁Kenne	-11.7379
▁Lock	-11.7379
▁bouncing	-11.738
nstall	-11.738
bishi	-11.7381
berry	-11.7381
IFT	-11.7382
▁Ready	-11.7383
▁OneM	-11.7383
▁feb	-11.7384
htym	-11.7385
▁probe	-11.7387
▁taste	-11.7387
▁REP	-11.7388
udden	-11.7388
MTN	-11.7389
09:	-11.739
▁entitlement	-11.7393
lliss	-11.7393
▁borrower	-11.7393
▁Artem	-11.7393
▁Pound	-11.7393
▁vacan	-11.7393
▁Iran	-11.7394
merica	-11.7394
USO	-11.7394
▁accelerate	-11.7395
▁Dino	-11.7396
model	-11.7396
▁-0.7	-11.7396
▁donation	-11.7396
Marjo	-11.7397
▁rang	-11.7397
▁Mira	-11.7397
suus	-11.7398
Galeri	-11.7398
▁Controll	-11.7398
▁beneficia	-11.7399
▁strip	-11.7401
▁mkt	-11.7401
NQ	-11.7402
phos	-11.7402
2,68	-11.7403
▁260,000	-11.7404
specta	-11.7404
▁Dax	-11.7405
▁bias	-11.7405
vacu	-11.7406
▁hedge	-11.7406
▁auditor	-11.7407
RES	-11.7407
sterda	-11.7407
▁plum	-11.7407
▁DOW	-11.7407
OM	-11.7408
▁assess	-11.7411
BIO	-11.7411
brid	-11.7412
▁Book	-11.7413
,665	-11.7413
YTY	-11.7414
▁Team	-11.7415
LEE	-11.7415
▁Hanna	-11.7417
274-	-11.7418
ib	-11.7419
▁frag	-11.7419
▁Reach	-11.742
▁Resident	-11.742
FXE	-11.742
evai	-11.742
▁730	-11.7421
▁Medi	-11.7421
carbon	-11.7422
▁PET	-11.7422
/24	-11.7423
▁scrapp	-11.7424
hta	-11.7424
inspire	-11.7425
Dol	-11.7425
▁Show	-11.7426
usion	-11.7426
ua	-11.7426
▁upward	-11.7428
manage	-11.7428
▁Tah	-11.7429
JL	-11.7429
▁payout	-11.743
▁auto	-11.743
shing	-11.743
▁Schul	-11.7432
▁accumulating	-11.7433
toria	-11.7435
HZN	-11.7436
PD	-11.7436
▁incl	-11.7436
▁16,4	-11.7437
,244	-11.7438
▁observ	-11.744
Fast	-11.7442
filtrat	-11.7444
▁fram	-11.7444
▁:),	-11.7444
lly	-11.7444
▁draw	-11.7445
▁Osak	-11.7445
▁artist	-11.7445
ZC	-11.7446
enture	-11.7447
▁hydro	-11.745
860	-11.7451
▁$0.37	-11.7451
MD	-11.7452
▁Veli	-11.7453
▁Svens	-11.7453
kke	-11.7454
Year	-11.7454
▁appealing	-11.7454
EW	-11.7456
▁148.	-11.7456
▁Pho	-11.7456
▁Soar	-11.7457
▁Clos	-11.7457
81	-11.7458
teena	-11.7462
WE	-11.7468
Hammer	-11.7468
▁miles	-11.7469
▁299	-11.747
eaten	-11.7471
▁backup	-11.7472
▁Mig	-11.7474
▁trim	-11.7475
like	-11.7479
Know	-11.7479
ocki	-11.7479
gyp	-11.748
▁Beer	-11.748
▁Week	-11.748
TION	-11.7482
▁24.5	-11.7483
▁biofuels	-11.7484
▁585	-11.7484
15-20	-11.7484
cili	-11.7491
Headquarter	-11.7494
▁Magn	-11.7494
▁warn	-11.7496
ubscription	-11.7502
erial	-11.7509
shi	-11.7511
▁LOL	-11.7511
▁delist	-11.7513
zl	-11.7513
▁Bul	-11.7514
Compara	-11.7515
rivate	-11.7516
▁impl	-11.7516
HL	-11.7517
▁16.9	-11.7518
▁Valk	-11.752
bia	-11.7524
vicin	-11.7525
▁suppo	-11.7526
ort	-11.7527
/14	-11.7528
▁Miss	-11.7529
▁argument	-11.7529
Upside	-11.7531
lur	-11.7531
▁swap	-11.7532
▁En	-11.7539
4.44	-11.7542
▁MD	-11.7544
▁crash	-11.7544
▁Part	-11.7545
meri	-11.7546
kK	-11.7546
early	-11.7548
FIX	-11.7549
▁pile	-11.7553
▁IMO	-11.7554
▁Hydro	-11.7554
▁Pai	-11.7554
▁Swiss	-11.7554
▁Kantar	-11.7554
▁Liquid	-11.7555
anie	-11.7555
▁HS	-11.7555
▁Buffett	-11.7555
▁conversion	-11.7555
▁Newswire	-11.7555
▁Boomerang	-11.7556
▁Kauhajo	-11.7557
NBC	-11.7558
CAD	-11.7558
▁Electric	-11.7558
ustainab	-11.7562
▁Kraft	-11.7562
QK	-11.7563
Scal	-11.7564
▁fulfill	-11.7564
erts	-11.7564
3.80	-11.7565
▁session	-11.7565
▁Hart	-11.7566
▁Soon	-11.7567
rg	-11.7568
▁$150	-11.7568
▁modem	-11.757
.@	-11.7571
▁Deb	-11.7572
4%,	-11.7573
Db	-11.7574
▁139	-11.7576
▁agent	-11.7579
▁Would	-11.7585
▁146	-11.7585
▁motor	-11.7585
app	-11.7586
utiliz	-11.7587
▁Fore	-11.7587
▁tolera	-11.7593
uf	-11.7601
ultimedia	-11.7604
▁Base	-11.7606
▁Lean	-11.7607
▁pace	-11.7608
▁Dub	-11.7608
kM	-11.7608
▁cool	-11.7609
125	-11.7609
,21	-11.761
wal	-11.7614
▁Orient	-11.7615
▁mari	-11.7622
NV	-11.7625
▁Stavo	-11.7625
elig	-11.7627
▁$1.3	-11.763
egment	-11.7632
▁CHAR	-11.7633
EZ	-11.7633
.9.19	-11.7636
grea	-11.7639
▁SAB	-11.7642
▁Westp	-11.7643
nine	-11.7643
01/	-11.7646
▁strict	-11.7648
▁386	-11.7649
Shoulders	-11.7653
▁mov	-11.7653
▁Best	-11.7654
OTH	-11.7657
ernet	-11.7658
▁underw	-11.7658
RPT	-11.7666
▁38.8	-11.7667
▁9:	-11.767
▁600,	-11.767
▁2,0	-11.7673
▁Pick	-11.7677
▁1,13	-11.7677
763	-11.7678
▁evident	-11.7679
qV	-11.768
▁Vic	-11.7681
▁intention	-11.7681
▁committe	-11.7682
▁doom	-11.7682
▁tre	-11.7687
▁Kas	-11.7688
ee	-11.769
▁PLU	-11.769
67.	-11.7692
imeter	-11.7692
▁height	-11.7695
▁0,2	-11.7698
▁cab	-11.77
lding	-11.77
▁-24.	-11.7701
▁quali	-11.7702
▁360	-11.7703
rupp	-11.7708
▁37.5	-11.7709
Ear	-11.771
mbur	-11.7711
rja	-11.7713
▁decor	-11.7715
our	-11.7717
▁pave	-11.7719
dep	-11.772
▁Saha	-11.772
▁Gav	-11.772
hair	-11.7721
ues	-11.7722
niec	-11.7723
CM	-11.7725
▁CompaniesHo	-11.7726
▁Numbers	-11.7727
▁HO	-11.7729
gram	-11.773
▁Innovations	-11.773
structure	-11.7737
▁petition	-11.7738
▁WI	-11.7739
▁chase	-11.7744
haw	-11.7748
▁CNP	-11.7751
kapa	-11.7751
rical	-11.7756
Fo	-11.776
▁Every	-11.7762
▁specif	-11.7764
▁46.4	-11.7765
▁wish	-11.7767
▁Shan	-11.7772
vani	-11.7781
ahden	-11.7784
Component	-11.7785
▁Hank	-11.7787
▁Ax	-11.7788
1.80	-11.7789
▁blow	-11.779
saw	-11.7791
orate	-11.7791
Sam	-11.7791
▁seve	-11.7791
antim	-11.7793
▁ALD	-11.7795
▁Penttil	-11.7799
▁generator	-11.78
ising	-11.7812
zb	-11.7813
rtan	-11.7817
ignificant	-11.783
▁expens	-11.7831
▁Les	-11.7831
dumping	-11.7838
commod	-11.7841
▁Cala	-11.7843
3,33	-11.7843
▁thing	-11.7845
RADE	-11.7851
▁215	-11.7857
▁routin	-11.7859
▁Bahr	-11.7862
885	-11.7865
QX	-11.7867
nnouncement	-11.7871
▁profil	-11.7875
ordan	-11.7876
Van	-11.7879
OD	-11.788
onlin	-11.7881
012	-11.7883
▁belt	-11.7886
▁Salmi	-11.7887
orts	-11.7888
▁steadi	-11.7889
Ki	-11.7893
LSC	-11.7896
▁Divest	-11.7896
IME	-11.7898
777	-11.7898
Presentation	-11.7902
Au	-11.7906
▁max	-11.7912
Bel	-11.7912
▁Antti	-11.7913
▁Coll	-11.7915
yea	-11.7919
Juha	-11.7924
ERE	-11.7926
230	-11.7928
▁Aug	-11.7928
▁lang	-11.7929
Hope	-11.7929
sen	-11.7931
/5	-11.7933
▁26.7	-11.7937
Cru	-11.7938
▁ART	-11.7939
▁CE	-11.794
LY	-11.7941
eigs	-11.7947
sori	-11.7948
▁Agricultur	-11.7948
▁shap	-11.7948
ussel	-11.7949
▁bra	-11.7955
▁dial	-11.7956
ssen	-11.7957
logical	-11.7958
▁INC	-11.7972
▁triggers	-11.7978
tor	-11.7979
▁$300	-11.7981
▁Complet	-11.7982
Tur	-11.7986
▁captur	-11.7986
▁Essen	-11.7988
▁Jarv	-11.7989
36.4	-11.7994
▁flu	-11.7995
gener	-11.7996
▁winning	-11.7997
▁dominat	-11.7998
▁Mel	-11.7998
INV	-11.8002
erg	-11.8004
empt	-11.8004
latform	-11.801
ooring	-11.8021
▁rub	-11.8024
,73	-11.8028
▁$1.5	-11.803
▁Stad	-11.8033
rasil	-11.8035
osk	-11.804
IGA	-11.8046
,063	-11.8047
ramo	-11.805
▁31.	-11.805
▁flooring	-11.8052
act	-11.8053
chang	-11.8058
Ram	-11.806
▁feeder	-11.806
▁525.	-11.8064
▁0%	-11.8066
sev	-11.8069
▁Arab	-11.8078
Qq	-11.8088
jx	-11.8089
uric	-11.8094
▁Rein	-11.8094
Ni	-11.8095
96	-11.8097
▁Jon	-11.8103
▁recommend	-11.8105
ause	-11.8109
lant	-11.8113
mmy	-11.8115
▁Associate	-11.8117
▁Add	-11.8117
▁liv	-11.8122
▁Amb	-11.8124
▁imo	-11.8126
TEX	-11.8129
strict	-11.8132
lden	-11.8144
▁Reco	-11.8145
▁outs	-11.8153
▁Log	-11.8154
ART	-11.8162
▁Burt	-11.8164
ost	-11.8164
haul	-11.8167
Bp	-11.8168
itas	-11.8173
ades	-11.8173
▁Conno	-11.8174
lea	-11.8176
IL	-11.8177
VIX	-11.8182
ortun	-11.8183
pper	-11.8189
▁Pieti	-11.819
▁Harri	-11.819
▁hour	-11.8194
.06	-11.8196
▁Ord	-11.8197
etc	-11.8197
▁Qui	-11.8199
▁55.	-11.8211
EMI	-11.8224
▁undertak	-11.8226
ime	-11.8229
sors	-11.8231
ruis	-11.8243
26.2	-11.8244
esident	-11.8247
▁Spe	-11.8249
▁WIG	-11.825
▁pressur	-11.8252
▁TEL	-11.8254
▁instruction	-11.8254
▁breath	-11.8258
TLS	-11.8259
lim	-11.8263
▁Stud	-11.8263
▁Try	-11.8264
565	-11.8268
▁contribut	-11.8269
24.7	-11.8275
Cu	-11.8276
Tom	-11.8276
▁Fac	-11.8277
▁terminat	-11.8278
▁POY	-11.8281
Miller	-11.8282
olo	-11.8282
▁Contin	-11.8283
rfor	-11.8284
▁raid	-11.8289
▁Witt	-11.8292
ndler	-11.8293
▁cu	-11.83
▁141	-11.831
▁Sil	-11.831
zzi	-11.8315
470	-11.8324
▁practic	-11.8324
agu	-11.8326
▁reac	-11.833
Are	-11.8333
/8	-11.834
ail	-11.8341
▁Suo	-11.8342
▁45-	-11.8346
chool	-11.8347
▁Sym	-11.8347
▁123.	-11.8352
esel	-11.8361
▁Lot	-11.8364
lung	-11.8364
▁180	-11.8366
otka	-11.8371
.19	-11.8377
BRC	-11.838
▁Techn	-11.8381
▁18,000	-11.8389
securit	-11.8391
▁Rela	-11.8395
▁Cr	-11.8396
ches	-11.8397
▁Kind	-11.8404
fa	-11.8408
kia	-11.8414
forma	-11.8415
▁spo	-11.8428
▁Minera	-11.8431
▁0	-11.8432
▁finding	-11.8437
py	-11.844
jV	-11.8443
▁Stars	-11.8446
▁mull	-11.8452
ouse	-11.8455
6,	-11.8463
▁doc	-11.8464
EO	-11.8465
▁Tamm	-11.8465
▁Gene	-11.8466
Combin	-11.8466
position	-11.848
rated	-11.8481
▁demonstrat	-11.8482
▁Pha	-11.8484
▁PC	-11.8486
▁Right	-11.849
▁Conte	-11.8501
az	-11.8511
TIN	-11.8514
zing	-11.8517
RNA	-11.8521
▁STA	-11.8523
▁Fri	-11.8528
▁associat	-11.8529
iden	-11.8531
▁learn	-11.8531
BS	-11.8531
rel	-11.8533
▁Barr	-11.8534
▁Pir	-11.8534
▁Hass	-11.8539
AA	-11.8543
str	-11.8543
▁specializ	-11.8548
ces	-11.8555
edge	-11.856
agle	-11.8563
liki	-11.8569
35.9	-11.8586
bN	-11.8586
elin	-11.8588
18,000	-11.859
▁Vot	-11.8591
AN	-11.8593
▁corners	-11.8593
mano	-11.8594
COM	-11.8595
▁Kau	-11.8598
Pay	-11.8598
ori	-11.86
▁quarters	-11.8617
▁incorporate	-11.8626
▁13,	-11.863
rademark	-11.8633
▁regulat	-11.8638
▁Lei	-11.8648
▁Han	-11.8649
▁Creat	-11.8661
▁3%.	-11.8668
▁cong	-11.8672
▁whil	-11.8674
7.0	-11.8678
tensive	-11.8679
▁whos	-11.868
▁1.00	-11.868
▁Ad	-11.8683
IDC	-11.8693
▁amend	-11.8693
6.2	-11.8695
▁Caste	-11.8696
UY	-11.8703
▁36.4	-11.8704
▁gra	-11.8721
▁Rel	-11.8723
Pan	-11.8724
▁unif	-11.8731
▁definit	-11.8731
mage	-11.8737
RME	-11.8747
kr	-11.8761
▁cle	-11.8764
Franc	-11.8766
shark	-11.8782
▁utilise	-11.8783
▁3%	-11.8783
Erik	-11.8797
ative	-11.8797
▁NAV	-11.8798
num	-11.8801
ARE	-11.8802
hannel	-11.8804
▁Maya	-11.8804
▁peri	-11.8813
▁.28	-11.8815
Wi	-11.8825
HY	-11.8828
imi	-11.8837
▁Exp	-11.884
▁60-	-11.884
▁Sir	-11.8845
▁mind	-11.8848
MET	-11.8862
▁eng	-11.8869
ENE	-11.8871
BD	-11.8877
▁$17	-11.8883
▁fin	-11.8884
▁107	-11.8884
UGA	-11.8892
5",	-11.8899
ona	-11.8912
▁Kei	-11.8921
▁loader	-11.8926
ijat	-11.8931
▁tar	-11.8932
▁brows	-11.8937
▁24.1	-11.8938
ific	-11.8941
ening	-11.8949
▁Wel	-11.8949
▁196	-11.8951
▁21.2	-11.8952
▁IM	-11.8955
cultur	-11.8957
tk	-11.8959
6/25	-11.8959
Ingen	-11.8959
▁39.2	-11.8961
ds	-11.8963
ltan	-11.8964
olls	-11.8976
kkon	-11.8981
dru	-11.899
aq	-11.8992
arts	-11.8996
▁4.99	-11.8998
▁pol	-11.9003
App	-11.9007
Fin	-11.9015
▁forming	-11.9018
udge	-11.9019
MX	-11.9028
▁Kur	-11.9038
hra	-11.905
▁topic	-11.9051
bis	-11.9051
▁530	-11.9062
PRO	-11.9066
ky	-11.9081
▁Tr	-11.9087
tonne	-11.909
▁645	-11.909
Roar	-11.9099
.46	-11.9103
lers	-11.9107
xy	-11.9109
▁Lin	-11.911
▁5,0	-11.9118
▁Lon	-11.9118
▁298	-11.9123
FJ	-11.9127
▁Form	-11.9129
▁Action	-11.9137
▁bri	-11.9138
▁.98	-11.9138
mote	-11.9162
▁lock	-11.9164
4.40	-11.9166
hip	-11.9179
,7	-11.918
lw	-11.9183
▁SW	-11.9185
▁74.	-11.9185
▁cove	-11.9189
▁Karp	-11.919
74,	-11.9191
rius	-11.9201
oint	-11.9205
▁app	-11.9212
She	-11.9213
415	-11.9224
▁remova	-11.9227
▁Lak	-11.9237
arge	-11.9244
HF	-11.9246
▁Cur	-11.9254
▁Ox	-11.9254
Cell	-11.9256
aza	-11.9257
▁Alta	-11.9258
▁mobil	-11.9262
xD	-11.9263
▁Pav	-11.9263
ran	-11.928
iness	-11.9284
▁Mean	-11.9287
bre	-11.9291
▁emb	-11.9291
iki	-11.9293
▁rent	-11.9302
▁inverte	-11.9308
▁historical	-11.931
St	-11.9314
▁VT	-11.9316
ute	-11.9318
Banking	-11.9325
▁ON	-11.9326
▁Turn	-11.933
▁struggle	-11.933
LX	-11.9337
▁und	-11.934
nurse	-11.9341
umm	-11.9348
▁580	-11.9348
▁Lew	-11.9371
66,	-11.9377
▁Range	-11.9382
▁09.	-11.9382
▁30.0	-11.9384
jQ	-11.9397
bi	-11.94
fb	-11.9408
▁fel	-11.9411
▁resu	-11.9413
YO	-11.9417
▁13.4	-11.9418
ashing	-11.9424
▁Wis	-11.9426
finance	-11.9427
su	-11.9433
ci	-11.9435
lberg	-11.9457
charg	-11.9458
29.	-11.9458
Whi	-11.9459
NT	-11.9461
vor	-11.9462
▁GL	-11.9469
▁IP	-11.9471
MN	-11.9481
dministrat	-11.9489
audit	-11.9493
AMT	-11.95
▁Lass	-11.9501
▁fa	-11.9502
▁sit	-11.9511
▁sla	-11.9518
avell	-11.9519
2,5	-11.9521
ist	-11.9524
PN	-11.9525
▁Bav	-11.953
INE	-11.9531
Mari	-11.9536
▁tech	-11.9541
ants	-11.9543
tib	-11.9548
anies	-11.9556
▁disp	-11.9556
cu	-11.9582
CU	-11.9587
▁Merk	-11.9599
▁charter	-11.96
ama	-11.9601
Sever	-11.9613
▁Bus	-11.9621
traders	-11.9624
▁offs	-11.9625
▁reel	-11.9631
▁FL	-11.9648
▁GP	-11.9654
▁Arche	-11.967
abas	-11.9671
ospital	-11.9674
voice	-11.9676
▁bell	-11.9682
ected	-11.9685
▁te	-11.9692
▁Lt	-11.9697
tral	-11.9714
▁emphasis	-11.9717
lov	-11.9725
▁Vali	-11.9726
▁opt	-11.9727
abin	-11.9732
▁9,	-11.9749
▁106.	-11.975
via	-11.9757
agen	-11.9757
jc	-11.9762
kl	-11.9766
liste	-11.9768
sibility	-11.9769
RAN	-11.9769
▁appl	-11.978
ZA	-11.9792
▁393	-11.9796
▁Bos	-11.9796
$$,	-11.98
xX	-11.9808
league	-11.9819
▁Karh	-11.9821
9,	-11.9826
▁29.	-11.9836
bers	-11.9843
assa	-11.9843
▁dai	-11.9847
▁tell	-11.9848
ebr	-11.9855
▁Denie	-11.9857
word	-11.9864
▁mass	-11.9867
▁2008-	-11.9867
▁Hy	-11.9868
gs	-11.9868
elved	-11.987
▁hy	-11.9874
▁Ana	-11.9881
ffe	-11.9883
hna	-11.9896
▁proper	-11.9903
abet	-11.9904
▁Kor	-11.9912
ention	-11.9914
177	-11.9915
nstrument	-11.9916
//	-11.9919
PLU	-11.9922
vanti	-11.9925
659	-11.9928
iti	-11.9929
izza	-11.9931
▁PR	-11.9933
ussi	-11.9934
▁Sai	-11.9934
erform	-11.9956
▁BEI	-11.997
8.65	-11.9991
▁TAS	-12.0023
▁lin	-12.0025
▁Ada	-12.0045
ameter	-12.0047
▁Meri	-12.0052
▁1,9	-12.0053
BJ	-12.0054
0.80	-12.0067
tly	-12.0067
egor	-12.0068
▁Brat	-12.0069
▁reorganiz	-12.0071
gon	-12.0089
▁Hein	-12.009
ejo	-12.0096
Ny	-12.01
bul	-12.0109
iab	-12.0115
▁EA	-12.0115
▁42.5	-12.0119
▁aff	-12.0138
▁12.4	-12.0138
▁Juli	-12.014
eum	-12.0145
▁Loca	-12.0148
▁25.7	-12.0165
ech	-12.0167
Kb	-12.0171
:23	-12.018
Inside	-12.0181
▁Combin	-12.0183
bab	-12.0186
herapeutic	-12.0202
equ	-12.0207
ird	-12.0207
uite	-12.0214
shor	-12.0217
dor	-12.0222
erv	-12.0223
Im	-12.0229
dic	-12.0238
4.1	-12.0244
ctual	-12.0246
ajo	-12.0257
▁fai	-12.0257
UI	-12.0261
▁26.	-12.0269
▁stabilise	-12.028
BH	-12.0283
Trade	-12.0284
▁sl	-12.029
▁Henr	-12.0292
▁90.	-12.0295
acks	-12.0298
▁(+3	-12.03
controlle	-12.0303
owne	-12.0313
cia	-12.0316
▁Skeptic	-12.0319
▁econom	-12.0319
OC	-12.0319
▁lik	-12.0323
▁allo	-12.0324
▁Ill	-12.0328
GU	-12.0331
ph	-12.0341
▁Chang	-12.0346
▁thinks	-12.0368
▁shar	-12.0369
tent	-12.0376
▁Kra	-12.0393
▁Vis	-12.0396
tim	-12.0413
▁accumulat	-12.0415
equen	-12.043
4.4	-12.0442
nes	-12.0443
WD	-12.0448
▁Mov	-12.0458
skar	-12.0459
lvan	-12.0462
▁96.	-12.0477
▁activat	-12.0488
▁Ac	-12.0491
▁Rat	-12.0494
▁LO	-12.0494
ADS	-12.0505
▁Ruu	-12.051
▁82	-12.0512
▁validati	-12.0517
format	-12.0524
▁Au	-12.0526
.37	-12.0538
▁Ot	-12.0539
▁Chai	-12.0565
▁Rs	-12.0565
mit	-12.0566
vX	-12.0577
▁Hang	-12.0578
illing	-12.0584
▁Kit	-12.0586
hase	-12.0592
Max	-12.0596
RUS	-12.0596
nter	-12.0602
▁Af	-12.0608
orn	-12.0609
je	-12.0612
▁weight	-12.0613
▁30,	-12.0613
▁Due	-12.0621
secur	-12.0633
Pa	-12.0635
▁UA	-12.0637
eholm	-12.064
▁CR	-12.0644
pon	-12.0651
▁mu	-12.0653
02	-12.0654
▁coun	-12.0657
tail	-12.0666
▁y	-12.0666
tow	-12.0674
my	-12.0676
everage	-12.0678
akenn	-12.0679
▁tak	-12.0679
lotte	-12.0688
pai	-12.0688
orti	-12.0689
reme	-12.0696
uit	-12.0702
stick	-12.0706
USP	-12.0716
▁rei	-12.0723
3.39	-12.0726
prom	-12.0734
▁7-	-12.0743
▁forever	-12.0749
▁table	-12.0754
▁dive	-12.0758
Lat	-12.0758
ermo	-12.0763
veral	-12.0766
▁358	-12.077
▁$22	-12.0778
iev	-12.0779
ss	-12.0783
inter	-12.0785
▁Aro	-12.0795
int	-12.0804
ub	-12.0808
Bk	-12.0808
▁WW	-12.0812
FM	-12.0822
euge	-12.0827
▁Merg	-12.0828
meter	-12.0859
▁minim	-12.0861
sto	-12.0896
flo	-12.0903
urt	-12.0907
Gr	-12.0908
lot	-12.0913
Ne	-12.0917
avi	-12.0919
PX	-12.0936
yva	-12.0945
elations	-12.0946
▁Lai	-12.0948
▁4.	-12.0949
fare	-12.0956
▁Markk	-12.0963
03	-12.0971
overnment	-12.0984
▁element	-12.0991
kids	-12.0996
lasto	-12.1002
▁1,40	-12.1011
▁46.	-12.1012
▁10,	-12.1027
ou	-12.1033
distribution	-12.1038
▁corr	-12.1065
-4	-12.1066
national	-12.1068
ursu	-12.1069
Abo	-12.1073
▁flexib	-12.1082
▁WT	-12.1084
.20	-12.1084
▁321	-12.1089
Look	-12.109
▁bit	-12.1095
ukh	-12.1096
tora	-12.1107
tta	-12.1107
86.9	-12.111
eat	-12.1113
pollu	-12.113
rgin	-12.1139
vy	-12.1146
leva	-12.1156
32.9	-12.1165
spir	-12.1173
anoma	-12.1177
OK	-12.1184
run	-12.1191
▁Nad	-12.1197
▁124.	-12.1198
Compt	-12.1199
gar	-12.1199
Met	-12.1207
▁internationali	-12.1227
▁Kris	-12.1287
Ra	-12.1296
▁industr	-12.1309
▁thi	-12.1309
▁Haa	-12.1311
▁comm	-12.1314
witch	-12.1317
▁organiz	-12.1317
wh	-12.132
urin	-12.1331
▁agenc	-12.1335
▁comple	-12.1365
▁genera	-12.1367
▁210	-12.1368
▁Lundbe	-12.137
onl	-12.1373
▁VW	-12.1376
lanne	-12.1377
ene	-12.1378
ricol	-12.1387
NZ	-12.1403
▁Hum	-12.1405
DG	-12.1407
roxi	-12.1409
tog	-12.1417
slav	-12.1422
hir	-12.1424
▁Lund	-12.1452
▁Warr	-12.1454
dur	-12.1455
▁56,	-12.1457
ger	-12.1463
▁Mak	-12.1474
▁99.	-12.1475
ppi	-12.1483
unna	-12.1485
gV	-12.1485
arante	-12.1499
tention	-12.1505
▁Obl	-12.1507
rvo	-12.1512
pear	-12.152
▁bus	-12.154
▁ph	-12.1542
valuation	-12.1543
usi	-12.1547
Fi	-12.1555
▁DV	-12.1565
▁Sandb	-12.1567
▁118	-12.1576
▁TI	-12.1578
onsider	-12.1578
▁Yo	-12.1579
▁175	-12.1586
▁weake	-12.1615
432	-12.1625
llo	-12.1642
sberg	-12.1652
▁Ya	-12.1659
▁Na	-12.1671
DS	-12.1679
▁hun	-12.1679
▁overse	-12.1684
NM	-12.1699
Col	-12.17
▁slowe	-12.1714
▁Rock	-12.1714
ellon	-12.1724
▁collaborati	-12.1735
▁Ali	-12.1741
OX	-12.1748
29.5	-12.175
.62	-12.1753
nio	-12.1759
41	-12.1762
nds	-12.1762
lls	-12.1774
▁Dis	-12.178
▁Oh	-12.1784
▁Relia	-12.1786
▁k	-12.1792
▁Neu	-12.1798
▁41.	-12.1801
▁164	-12.181
▁spa	-12.1815
▁Os	-12.1815
blog	-12.1825
door	-12.1834
18.2	-12.1844
ANN	-12.185
twe	-12.1855
ripe	-12.1863
wage	-12.1867
▁loo	-12.1874
oda	-12.1883
Pag	-12.1883
eadership	-12.19
ements	-12.1904
▁hal	-12.1913
dicat	-12.1913
oyed	-12.1922
rgus	-12.1934
IPS	-12.194
▁valid	-12.1944
▁Note	-12.1946
▁414	-12.195
3.26	-12.1987
XC	-12.1997
WT	-12.1998
20.5	-12.2002
744	-12.2019
▁Saar	-12.2023
▁resident	-12.2025
▁Gen	-12.2027
lut	-12.2028
uction	-12.2035
Goodwi	-12.2052
yr	-12.2059
ision	-12.2074
ponen	-12.2081
Lule	-12.2087
IR	-12.2092
▁UP	-12.2096
▁Ind	-12.2096
Ratings	-12.2114
▁Pet	-12.2118
▁Gua	-12.2127
▁77.	-12.2129
▁Commen	-12.2133
ari	-12.2133
▁amo	-12.2139
GG	-12.2155
▁yr	-12.2156
skill	-12.2157
ampe	-12.2159
uarterly	-12.216
nrik	-12.216
ledge	-12.2161
▁Cann	-12.2164
keptical	-12.2167
▁$11.	-12.2185
arranger	-12.2189
umber	-12.2197
VI	-12.2202
▁stabilis	-12.2213
▁Des	-12.2215
LAS	-12.223
POS	-12.2239
Patric	-12.2259
echnology	-12.2263
lyk	-12.2264
▁deriv	-12.2265
og	-12.2265
Des	-12.2269
uz	-12.2271
▁RF	-12.2272
▁Borde	-12.2285
etric	-12.2286
ports	-12.2289
▁140.	-12.2289
mpe	-12.2291
▁Sten	-12.2292
▁Kara	-12.2297
UC	-12.23
▁rated	-12.2303
kat	-12.2308
▁CN	-12.2313
GA	-12.2316
RH	-12.2319
LT	-12.2332
ouch	-12.2337
entry	-12.2345
mann	-12.235
▁sett	-12.2355
Updat	-12.2357
113	-12.2361
Bm	-12.2366
Xn	-12.2372
▁$1.7	-12.2381
fli	-12.2384
Por	-12.2391
,800	-12.24
tru	-12.2404
mmission	-12.2405
uck	-12.2409
561	-12.241
46,	-12.2418
▁Lind	-12.2419
GLo	-12.2427
▁competi	-12.2429
▁Din	-12.2431
▁enhanc	-12.2435
▁$13	-12.2453
▁magnet	-12.2453
yfa	-12.2471
ez	-12.2474
▁sidewa	-12.2487
anne	-12.249
tin	-12.2491
HDS	-12.2496
tto	-12.2503
hani	-12.2506
million	-12.251
dels	-12.2514
SON	-12.2523
▁-0.0	-12.2537
Mo	-12.2559
tein	-12.2562
4.7	-12.2562
ition	-12.2566
sha	-12.2566
oul	-12.2572
▁marin	-12.2588
28.9	-12.2593
▁Gre	-12.2605
yst	-12.2615
▁Tra	-12.2619
▁NO	-12.262
11.4	-12.2622
▁imp	-12.2622
ught	-12.2623
▁qu	-12.2632
▁RB	-12.2637
hing	-12.2638
▁Lit	-12.2649
wa	-12.2654
mod	-12.2661
rm	-12.2664
AH	-12.2672
organise	-12.2679
▁460	-12.2686
ountry	-12.2705
disclos	-12.2712
▁56.	-12.2723
▁ES	-12.2736
akes	-12.2759
ilj	-12.276
ompetition	-12.2771
ides	-12.2771
Equi	-12.2811
▁457.	-12.2824
close	-12.283
▁Gil	-12.2833
clud	-12.2837
▁mal	-12.2855
5%)	-12.2856
▁Lau	-12.2857
Sa	-12.2866
igu	-12.2873
spect	-12.2875
▁cooperat	-12.2888
lig	-12.2892
inte	-12.2902
ler	-12.2905
▁Gal	-12.2911
▁Sau	-12.2915
REAL	-12.2916
▁coll	-12.2923
▁emerge	-12.2925
▁pushe	-12.2931
▁emphasise	-12.2932
▁Aal	-12.2935
onsult	-12.2943
▁sink	-12.2949
arela	-12.2957
approve	-12.2968
▁Equit	-12.2969
mbro	-12.2975
xim	-12.2976
atu	-12.298
)-	-12.3005
Sp	-12.3007
ec	-12.3017
iversiti	-12.3032
▁star	-12.3053
▁Linde	-12.3084
▁5,	-12.3086
▁Andre	-12.309
▁Combine	-12.3095
▁CA	-12.3104
pled	-12.3115
Vir	-12.3116
cted	-12.3129
gazi	-12.3132
▁Ren	-12.3133
LI	-12.314
720	-12.3148
WA	-12.3148
lative	-12.316
cock	-12.3164
▁Endo	-12.3171
Lx	-12.3183
gua	-12.3186
pot	-12.3187
liff	-12.3191
EBR	-12.3193
▁Expan	-12.3197
▁Ek	-12.3199
▁Gam	-12.3211
rze	-12.3212
▁Trip	-12.3216
IB	-12.3221
cree	-12.3232
vious	-12.3233
▁579	-12.3267
-120	-12.327
vest	-12.3273
▁300,00	-12.3275
yer	-12.3283
hile	-12.3294
uko	-12.3296
adv	-12.3297
nning	-12.3298
eur	-12.3299
oost	-12.3309
▁101.	-12.3317
ealing	-12.3331
▁Desa	-12.3335
▁168	-12.3341
cision	-12.3349
rticles	-12.3361
rt	-12.3368
▁20.7	-12.3369
bod	-12.3373
sing	-12.3377
SDA	-12.3382
lemi	-12.339
aul	-12.3409
Ro	-12.3411
▁expe	-12.3413
hti	-12.3414
gari	-12.3418
ockmann	-12.3421
Tor	-12.3426
ival	-12.3426
▁Ty	-12.3435
▁Shar	-12.3438
▁Inve	-12.3441
ecur	-12.3441
▁lean	-12.3445
▁Alti	-12.345
ague	-12.3451
▁assume	-12.3471
lki	-12.3473
ced	-12.3477
rid	-12.3484
▁Pell	-12.349
that	-12.35
CY	-12.3502
ocket	-12.3512
ora	-12.3526
23.5	-12.3535
,540	-12.3535
▁133.	-12.3536
.03	-12.3546
6,9	-12.3552
oney	-12.3565
▁Ink	-12.357
▁Hill	-12.3579
Kal	-12.3596
VA	-12.3598
gj	-12.3599
Phas	-12.36
secure	-12.362
eta	-12.363
agon	-12.363
zed	-12.3637
▁Ply	-12.3642
VU	-12.3663
ollaboration	-12.3664
rship	-12.3682
KT	-12.3697
▁76	-12.3697
▁740	-12.3698
scar	-12.37
NK	-12.3706
cs	-12.371
hn	-12.3719
Fr	-12.3724
LJ	-12.3736
▁Converge	-12.3739
ilings	-12.3745
-28	-12.375
tes	-12.3756
▁acqui	-12.3763
▁packe	-12.3772
nn	-12.3785
-7	-12.3792
erink	-12.3795
ipp	-12.3811
0.91	-12.3816
▁Surg	-12.3835
▁Suu	-12.3851
HE	-12.3857
▁18:	-12.3886
gi	-12.3891
▁nurs	-12.3903
▁ti	-12.3911
WL	-12.3915
8.3	-12.3941
▁230	-12.3948
sis	-12.3964
ati	-12.3964
was	-12.3976
cco	-12.3994
▁25.	-12.4001
▁typ	-12.4021
▁137	-12.4034
DC	-12.4047
rabbi	-12.4051
▁lowe	-12.4057
tte	-12.4063
rbin	-12.4077
-201	-12.4077
valu	-12.4079
06/2	-12.4081
Li	-12.4087
TQ	-12.4093
▁Moor	-12.4097
▁Kii	-12.4099
oli	-12.4103
▁Bak	-12.4118
▁northe	-12.4118
rts	-12.412
gol	-12.4126
zz	-12.4139
aug	-12.4143
here	-12.4147
▁fo	-12.4153
posite	-12.418
ense	-12.4191
mmer	-12.4207
bu	-12.4207
▁Res	-12.4208
▁assist	-12.4218
▁tr	-12.4219
cket	-12.422
kato	-12.4226
uts	-12.4226
Comment	-12.425
rin	-12.4254
▁FR	-12.4256
▁col	-12.4257
06-	-12.4265
WO	-12.4267
▁Fine	-12.4272
▁styl	-12.4279
▁Opti	-12.4281
omentum	-12.4284
▁197	-12.4289
mene	-12.4313
68.7	-12.4313
83	-12.4327
eld	-12.4339
Ol	-12.4344
409	-12.4348
do	-12.4355
▁Cre	-12.4369
kyla	-12.437
rge	-12.4371
▁roads	-12.4373
▁Kh	-12.4374
reat	-12.4375
tions	-12.4378
5%	-12.4389
▁promo	-12.4395
ppine	-12.4401
▁Settl	-12.4403
▁Mot	-12.4403
▁241	-12.4419
Dur	-12.4422
▁Eri	-12.4424
,8	-12.4428
▁consul	-12.4431
Compa	-12.4441
▁Eat	-12.4461
umer	-12.4464
evel	-12.4465
QQ	-12.4466
iang	-12.447
kija	-12.4489
▁70.	-12.4501
mV	-12.4506
▁420	-12.4507
eX	-12.4518
jack	-12.452
▁Equi	-12.4534
▁Arch	-12.4567
Apart	-12.4591
kar	-12.4591
tron	-12.4591
▁"20	-12.4596
78.	-12.4597
xe	-12.4604
hel	-12.4611
▁McA	-12.4635
▁6,	-12.464
▁Kaz	-12.4644
option	-12.4645
▁partial	-12.4647
ord	-12.4653
arges	-12.4663
isting	-12.4671
▁sal	-12.4676
▁corner	-12.4681
▁164.	-12.4683
4,6	-12.4691
▁Minn	-12.4704
▁Ent	-12.4713
pm	-12.4722
▁850	-12.4729
nx	-12.4736
gra	-12.4737
sum	-12.4757
roadcast	-12.476
ace	-12.4766
pha	-12.4768
fe	-12.4776
avel	-12.4777
▁630	-12.4777
.95	-12.4778
PT	-12.4779
▁distan	-12.4791
ncer	-12.48
▁Ala	-12.4801
▁authori	-12.4802
▁OF	-12.4819
▁proce	-12.4821
mer	-12.484
9.9	-12.484
Else	-12.4849
test	-12.4864
ache	-12.4879
▁2-	-12.4879
▁Strateg	-12.4881
gers	-12.4886
total	-12.4892
ORN	-12.4895
ights	-12.4899
163	-12.4902
uran	-12.491
eeds	-12.4918
▁requ	-12.4933
▁192	-12.4935
fuel	-12.4937
Trac	-12.4938
hoo	-12.494
▁Ran	-12.4942
▁106	-12.4957
▁vib	-12.4978
▁Pes	-12.4988
emia	-12.4991
ups	-12.4993
CB	-12.4993
Row	-12.4993
itt	-12.5014
▁Moro	-12.5016
▁fundam	-12.5046
309	-12.5046
▁DO	-12.5069
ij	-12.5075
nk	-12.5083
itive	-12.5094
▁rob	-12.5101
▁arriv	-12.5101
▁qui	-12.5106
pal	-12.5116
Glob	-12.5123
rossover	-12.5139
nned	-12.514
CSE	-12.5144
building	-12.5145
▁Willi	-12.5149
SC	-12.5161
▁practi	-12.517
Tal	-12.5171
▁hangin	-12.5174
▁phospho	-12.5174
▁Swe	-12.5191
mil	-12.5201
nto	-12.5202
▁crea	-12.5204
▁Qu	-12.5204
asto	-12.5207
Tip	-12.5218
0.00	-12.5221
▁Univers	-12.5227
loy	-12.5229
▁10,5	-12.5229
rmo	-12.5232
▁poo	-12.5233
▁Rau	-12.5234
rtise	-12.5237
▁spe	-12.5237
BBC	-12.525
TA	-12.5254
unge	-12.5275
▁Alumin	-12.5283
BO	-12.5286
ansa	-12.5288
▁20.	-12.5288
▁chi	-12.5306
winds	-12.5311
▁111	-12.5317
OT	-12.5321
2.8	-12.5328
gredient	-12.5332
hw	-12.5336
▁Cho	-12.5341
quity	-12.5341
▁$4.	-12.5356
sili	-12.5356
Bx	-12.5362
views	-12.5368
fee	-12.5377
▁MT	-12.5386
gro	-12.5387
ude	-12.5393
Wol	-12.5397
ealth	-12.5407
▁Locat	-12.5421
▁cou	-12.5421
▁NetA	-12.5427
▁wk	-12.5429
sch	-12.5445
▁cos	-12.5446
terbor	-12.5454
▁Sti	-12.5463
▁FI	-12.5468
nium	-12.5474
uce	-12.5476
▁mol	-12.5484
▁pu	-12.5488
rop	-12.5518
▁Mai	-12.5531
closure	-12.5535
now	-12.5537
▁Renta	-12.5542
HC	-12.5557
ocal	-12.5558
▁188	-12.5566
oji	-12.5575
vas	-12.5585
okan	-12.5589
Bu	-12.5594
firmed	-12.5597
tely	-12.56
▁119	-12.5604
50,000	-12.5612
BBV	-12.5613
ECT	-12.5616
DT	-12.5621
tations	-12.5628
5%,	-12.5633
▁op	-12.5634
▁olde	-12.5634
alit	-12.5636
lies	-12.5646
cha	-12.5664
got	-12.5677
lis	-12.5677
customer	-12.57
bid	-12.5702
lik	-12.5704
system	-12.5705
zo	-12.5715
gne	-12.5721
▁Ann	-12.5745
mm	-12.5748
par	-12.575
nufactur	-12.5754
rden	-12.5756
plant	-12.5773
open	-12.5789
varian	-12.579
▁reader	-12.5801
eij	-12.5823
products	-12.5826
▁Mini	-12.583
▁Slo	-12.5833
second	-12.584
ocol	-12.5849
ford	-12.5852
4.98	-12.5856
third	-12.5857
▁Mobil	-12.5865
EMB	-12.5869
▁Intera	-12.5875
7.5	-12.5886
▁TA	-12.5888
mobile	-12.589
Member	-12.5892
▁21.4	-12.5897
▁ru	-12.5905
▁domina	-12.5913
▁147	-12.5914
▁Leader	-12.5928
imin	-12.5937
▁hea	-12.5947
Home	-12.5951
▁Visi	-12.5953
well	-12.5953
tical	-12.5953
▁BM	-12.5955
rik	-12.5957
rnament	-12.5958
sq	-12.5965
GP	-12.5966
unit	-12.5967
Hein	-12.598
▁assistan	-12.5991
nov	-12.5996
▁Fe	-12.5996
tum	-12.5999
istic	-12.6004
▁sourc	-12.6005
ological	-12.6016
requisit	-12.6016
▁Ret	-12.6019
▁),	-12.6019
063	-12.6019
▁Dig	-12.6033
ako	-12.6034
▁Present	-12.6035
qt	-12.6049
▁Commer	-12.605
pr	-12.6054
kok	-12.6063
2.71	-12.6064
bination	-12.6081
fits	-12.6092
USD	-12.6095
▁159	-12.6096
employee	-12.61
Significan	-12.6109
vat	-12.6112
acqu	-12.6116
▁mechani	-12.6117
alth	-12.6129
report	-12.6136
industry	-12.6144
growth	-12.6159
5.7	-12.6159
lf	-12.6169
loss	-12.6171
Twit	-12.6186
▁generati	-12.6189
gu	-12.6193
high	-12.6198
▁220	-12.6213
enz	-12.6214
electronic	-12.6223
▁dump	-12.6223
▁cycl	-12.6224
▁stead	-12.6224
Rauta	-12.6233
▁Tes	-12.6238
read	-12.6242
Countr	-12.6246
▁Pentti	-12.6248
tton	-12.625
mal	-12.6261
▁coke	-12.6298
generati	-12.6302
rmine	-12.6307
isio	-12.6309
▁dra	-12.6311
▁grap	-12.6329
head	-12.6334
ench	-12.6338
▁incorporat	-12.6339
970	-12.634
April	-12.6343
deliver	-12.6345
trum	-12.6351
▁lif	-12.6362
ographic	-12.6363
.76	-12.6364
▁CI	-12.6371
ready	-12.6374
specific	-12.6376
gress	-12.6377
▁merg	-12.638
abel	-12.638
94,	-12.6392
lm	-12.6396
gr	-12.641
▁Activ	-12.6413
▁Fort	-12.6418
▁@2	-12.6426
three	-12.6426
engineer	-12.6428
America	-12.6437
Bull	-12.6444
▁Lion	-12.6448
compar	-12.6453
Swed	-12.6457
tw	-12.6464
▁bl	-12.6464
▁10:	-12.6476
,95	-12.6477
cks	-12.6481
▁hat	-12.649
▁(+	-12.6491
ONG	-12.6492
Estonia	-12.6494
sign	-12.6495
design	-12.6506
pz	-12.6509
▁impor	-12.6521
#	-12.6522
Savon	-12.6524
Business	-12.6531
▁pip	-12.6532
Leht	-12.6551
LR	-12.6556
passenger	-12.6559
ogen	-12.6562
ouble	-12.6564
qui	-12.6571
▁Ken	-12.6573
Media	-12.6573
headquarter	-12.6578
▁Dop	-12.6582
kos	-12.6591
expert	-12.6592
ukki	-12.6592
Subscri	-12.6593
▁Za	-12.6604
Unit	-12.6607
program	-12.6607
kku	-12.6616
analyst	-12.6616
Report	-12.662
just	-12.6623
demand	-12.6626
-5	-12.6628
minium	-12.663
claim	-12.6639
▁Frei	-12.6646
nsurance	-12.6664
annual	-12.6665
▁favour	-12.6668
Philip	-12.6671
metal	-12.6672
ewer	-12.6672
ear	-12.6674
mala	-12.6683
jE	-12.6685
focus	-12.6687
division	-12.6692
pound	-12.6695
▁$38	-12.6698
inten	-12.6704
loader	-12.6705
ndustry	-12.6708
pharmaceutical	-12.671
▁suppl	-12.6711
itten	-12.6716
gor	-12.6716
Lithuania	-12.6718
narrow	-12.6725
Hame	-12.6726
mposite	-12.6727
load	-12.6729
lift	-12.6729
rrect	-12.673
digit	-12.6737
▁187	-12.674
Germany	-12.674
range	-12.6743
improve	-12.6744
▁2,2	-12.6745
Invest	-12.6746
▁franc	-12.6748
plate	-12.675
Brazil	-12.675
four	-12.675
Model	-12.6751
Lemmink	-12.6755
trader	-12.6757
▁spen	-12.6768
South	-12.6769
function	-12.6774
breakout	-12.6774
egister	-12.6774
takeover	-12.6775
retailer	-12.6775
▁cate	-12.6777
▁meant	-12.6777
Africa	-12.6779
Huhtam	-12.6779
merge	-12.6779
▁maturi	-12.6782
Retail	-12.6783
af	-12.6784
Affecto	-12.6785
▁indic	-12.6788
stores	-12.6788
Lo	-12.679
Shell	-12.6796
Holding	-12.6797
Electric	-12.6799
Glencore	-12.6801
Morris	-12.6801
should	-12.6801
effective	-12.6805
Boomerang	-12.6806
Newswire	-12.6806
▁negotiate	-12.6807
Buffett	-12.6807
Kauhajo	-12.6807
conversion	-12.6808
Liquid	-12.6808
Kantar	-12.6809
Hydro	-12.681
Swiss	-12.681
experience	-12.681
fiber	-12.6812
what	-12.6813
Investment	-12.6818
chain	-12.6826
Matti	-12.6827
advance	-12.6828
GeoS	-12.6829
sheet	-12.683
collect	-12.683
▁cart	-12.6831
View	-12.6832
cable	-12.6832
Application	-12.6833
merger	-12.6833
Water	-12.6834
Korea	-12.6834
branch	-12.6835
NOK	-12.6835
Kraft	-12.6837
Again	-12.684
Unilever	-12.6841
Sainsbury	-12.6841
ial	-12.6842
Pearson	-12.6842
World	-12.6843
direct	-12.6843
Kingfisher	-12.6846
Shareholder	-12.6847
Lead	-12.6847
GlaxoSmithKline	-12.6847
Growth	-12.6847
family	-12.6847
click	-12.6848
Back	-12.6849
bigge	-12.6849
Friends	-12.6849
Tecno	-12.685
keep	-12.685
challenging	-12.6851
Customer	-12.6852
Deliver	-12.6852
crash	-12.6853
regard	-12.6853
bearish	-12.6853
Amazon	-12.6854
Lloyds	-12.6854
vehicle	-12.6855
Kaup	-12.6855
RG	-12.6856
found	-12.6858
Rock	-12.6858
HSBC	-12.6858
Demand	-12.6859
CNP	-12.686
broken	-12.6862
UL	-12.6862
Digital	-12.6863
Investors	-12.6865
Full	-12.6867
breaking	-12.6868
argument	-12.6869
▁AAPL	-12.687
Would	-12.6871
Dub	-12.6873
style	-12.6876
Mail	-12.6878
Today	-12.6878
Head	-12.6879
home	-12.6879
Mika	-12.6879
ASIA	-12.6879
Hot	-12.688
Economic	-12.688
"@	-12.6882
Support	-12.6888
▁Cooper	-12.6889
compass	-12.689
alt	-12.689
ded	-12.689
radio	-12.6891
drink	-12.6892
asset	-12.6893
Master	-12.6893
fun	-12.6894
regulator	-12.6895
Line	-12.6896
Westp	-12.6903
▁Provi	-12.6907
atter	-12.6907
BULL	-12.6908
kari	-12.6911
FL	-12.6913
usual	-12.6913
plus	-12.6915
front	-12.6916
BPI	-12.6917
Signal	-12.692
matter	-12.6921
Construction	-12.6924
lagg	-12.6926
quote	-12.6928
notice	-12.6932
Closed	-12.6932
tomorrow	-12.6933
utilis	-12.694
Estonian	-12.6947
TL	-12.6949
Leg	-12.6953
likely	-12.6954
few	-12.6954
cruis	-12.697
auth	-12.6974
▁CC	-12.6974
Mobil	-12.6976
klo	-12.6976
GAP	-12.6976
▁biofuel	-12.6979
WAR	-12.698
metro	-12.6987
speed	-12.6988
▁249	-12.6988
5,02	-12.6989
Raisi	-12.6989
2.19	-12.6991
Public	-12.6994
Univers	-12.6995
mbo	-12.6997
Turn	-12.6998
vena	-12.7
Gold	-12.7
cture	-12.7001
ular	-12.7003
fix	-12.7004
trading	-12.7006
▁spoke	-12.7007
Time	-12.7008
▁292	-12.7008
Will	-12.7008
rc	-12.701
Cooper	-12.701
▁Barclay	-12.7011
KIT	-12.7015
Talo	-12.7017
player	-12.7018
laims	-12.702
▁Cu	-12.7022
Adjust	-12.703
bond	-12.7036
Lee	-12.7036
extra	-12.7037
▁3.	-12.7039
graphic	-12.7041
▁frequen	-12.7047
▁CH	-12.7049
Other	-12.705
▁Dov	-12.7051
196	-12.7054
▁GH	-12.7055
lookin	-12.706
tended	-12.7061
386	-12.7063
emo	-12.707
ozn	-12.707
eutral	-12.707
▁Char	-12.7073
mmittee	-12.7074
64,0	-12.7075
hack	-12.7079
▁geographic	-12.7079
▁Latv	-12.7091
▁hydr	-12.7091
▁109,	-12.7092
takesk	-12.7092
65,00	-12.7093
Communi	-12.7094
rdea	-12.7094
TOR	-12.7098
360	-12.7103
▁Finlan	-12.7106
rival	-12.7108
▁ope	-12.7108
phon	-12.7108
Dans	-12.7112
Reco	-12.7114
Merc	-12.7118
cell	-12.7119
ppo	-12.7129
rio	-12.7131
Whit	-12.7131
Cast	-12.7136
▁multipl	-12.7144
tower	-12.7145
away	-12.7147
gdon	-12.7149
Press	-12.7151
Indi	-12.7155
▁excellen	-12.7159
obs	-12.717
Har	-12.7174
ye	-12.7176
swap	-12.7177
green	-12.7178
oid	-12.7183
▁Control	-12.7192
▁princip	-12.7193
Mill	-12.7198
ccelerate	-12.7199
tream	-12.72
52,5	-12.7202
▁borrow	-12.7203
paint	-12.7204
1,800	-12.7207
Vaa	-12.7209
arbon	-12.7214
dvertis	-12.7215
Vah	-12.7215
publi	-12.7216
disc	-12.7226
▁142	-12.7227
obile	-12.7228
Alu	-12.7231
▁rebuil	-12.7232
vis	-12.7233
igh	-12.7235
45,0	-12.724
▁Curren	-12.7241
▁99,	-12.7244
▁Residen	-12.7245
139	-12.7245
Tec	-12.7246
CAN	-12.7248
▁ta	-12.7251
UF	-12.7252
▁Agree	-12.7253
▁independen	-12.7253
bay	-12.7254
Qu	-12.7254
Vo	-12.7265
▁divi	-12.7266
▁Engine	-12.7267
2004	-12.727
▁challen	-12.7272
Savo	-12.7274
▁wash	-12.7275
Mac	-12.7279
uskunta	-12.728
21.4	-12.728
Bil	-12.7284
responsi	-12.7285
Cow	-12.7286
▁origina	-12.7287
xperience	-12.7289
Tim	-12.7291
helm	-12.7292
▁restructur	-12.7293
▁geographi	-12.7294
75,0	-12.7295
Explo	-12.7298
▁Consum	-12.7299
▁Dow	-12.73
earnings	-12.7301
▁Pohj	-12.7306
onomic	-12.7306
nounce	-12.7308
martphone	-12.7309
urvey	-12.7309
Thom	-12.731
▁advert	-12.731
▁subcontract	-12.731
▁Jyv	-12.7311
opera	-12.7312
eltdown	-12.7313
Sti	-12.7313
ubject	-12.7313
functional	-12.7315
case	-12.7315
▁Applica	-12.7318
otyp	-12.7319
ffect	-12.7319
▁impro	-12.7319
bro	-12.732
Quart	-12.732
nvestor	-12.7321
INN	-12.7322
▁capita	-12.7322
47,0	-12.7323
bov	-12.7323
rganization	-12.7323
kauppa	-12.7324
avourabl	-12.7324
believ	-12.7324
ndustri	-12.7326
ria	-12.7327
▁HIGH	-12.7327
turing	-12.7327
ettlement	-12.7327
▁Divide	-12.7328
mployee	-12.7328
entiment	-12.7329
wall	-12.733
▁bloc	-12.7331
mploy	-12.7332
auppa	-12.7332
26,0	-12.7333
Servi	-12.7333
eramic	-12.7334
▁stronge	-12.7334
eginning	-12.7334
urpris	-12.7334
nvironment	-12.7335
articular	-12.7335
emonstration	-12.7335
articipa	-12.7336
▁volatil	-12.7336
iagnostic	-12.7336
ntrepren	-12.7336
lehti	-12.7337
1,6	-12.7337
rofit	-12.7337
gnati	-12.7337
159	-12.7338
egotiation	-12.7338
▁Easy	-12.7338
Pharmac	-12.7339
$$$$$	-12.7339
ggggg	-12.7339
▁Glaxo	-12.7339
nitiative	-12.7339
▁diagnos	-12.7339
Continu	-12.7339
uspend	-12.7339
ooooo	-12.7339
ncertaint	-12.734
▁Superm	-12.734
▁pharm	-12.7341
NASD	-12.7341
▁Electro	-12.7341
eeeee	-12.7341
flex	-12.7342
ritis	-12.7342
▁Alpha	-12.7342
▁repay	-12.7342
▁reorganis	-12.7343
▁diff	-12.7343
pick	-12.7344
▁techno	-12.7344
Flex	-12.7345
▁resist	-12.7345
▁Health	-12.7346
viou	-12.7347
▁respect	-12.7347
Syste	-12.7347
▁tim	-12.7348
Produ	-12.7348
▁scien	-12.7349
▁Brew	-12.7349
demons	-12.7349
barr	-12.7349
▁cataly	-12.7349
watt	-12.735
▁69.	-12.735
FLX	-12.735
▁custo	-12.7352
INGA	-12.7353
▁NEW	-12.7353
irculati	-12.7353
esterday	-12.7353
artner	-12.7354
▁circ	-12.7354
drive	-12.7355
▁Foll	-12.7357
HZ	-12.7357
glob	-12.736
ulfill	-12.736
▁Roman	-12.7361
vantage	-12.7361
Chic	-12.7361
▁Agric	-12.7363
▁drag	-12.7363
entori	-12.7364
libr	-12.7364
▁Pohjo	-12.7365
ole	-12.7367
119	-12.7368
aniza	-12.7368
ocument	-12.7369
INK	-12.7369
128	-12.737
stead	-12.7371
▁Del	-12.7372
mediate	-12.7373
Hik	-12.7373
gh	-12.7374
atalyst	-12.7376
RIG	-12.7377
esta	-12.7377
XT	-12.7377
▁subsid	-12.7381
untai	-12.7384
▁elevat	-12.7384
kono	-12.7385
Conference	-12.7385
▁alternat	-12.7386
ategor	-12.7386
▁imagin	-12.7386
▁minera	-12.7386
mplement	-12.7387
▁Ov	-12.7388
▁occ	-12.7389
Prof	-12.739
3,1	-12.7392
▁eff	-12.7392
bell	-12.7393
utsourc	-12.7396
solut	-12.7396
01,8	-12.7396
ln	-12.7397
akv	-12.7397
▁repo	-12.7398
▁experi	-12.7401
tivate	-12.7401
▁infra	-12.7402
172	-12.7403
pay	-12.7404
▁Sec	-12.7405
selling	-12.7405
SAN	-12.7406
▁rock	-12.7411
silien	-12.7411
438	-12.7411
Donald	-12.7414
Mus	-12.7415
ntire	-12.7415
REN	-12.7416
crea	-12.7418
Rep	-12.7418
tt	-12.7419
solve	-12.7419
▁Close	-12.7421
Gen	-12.7422
82.	-12.7423
MOR	-12.7426
rugs	-12.7427
pack	-12.7427
425.	-12.7429
Rim	-12.743
upply	-12.743
1,7	-12.7434
unicipal	-12.7435
brica	-12.7435
crap	-12.7436
995	-12.7437
huri	-12.7438
aving	-12.7439
gin	-12.7439
Mi	-12.7439
▁diag	-12.744
rades	-12.7441
werp	-12.7441
rida	-12.7442
FTI	-12.7442
tig	-12.7443
▁quart	-12.7447
Unli	-12.7449
▁Edit	-12.745
EC	-12.7452
FIS	-12.7455
-12	-12.7455
yndicate	-12.7455
▁ent	-12.7458
NDO	-12.7459
agg	-12.7461
bury	-12.7462
entative	-12.7462
ttack	-12.7464
Ov	-12.7465
earish	-12.7466
▁Bore	-12.7466
ndicator	-12.7472
Fres	-12.7472
addin	-12.7473
▁possibilit	-12.7475
ETE	-12.7476
mpres	-12.7476
Kar	-12.7477
skyl	-12.7481
213	-12.7482
▁conve	-12.7483
eneca	-12.7483
pril	-12.7487
pad	-12.7487
▁revers	-12.7494
▁EI	-12.7497
tural	-12.7497
YNa	-12.75
▁trail	-12.7504
Rm	-12.7507
▁obj	-12.7507
▁pota	-12.751
▁recei	-12.7513
259	-12.7513
PEC	-12.7513
mbar	-12.7514
Loa	-12.7517
6%	-12.7519
iate	-12.7521
Kv	-12.7523
▁Eff	-12.7524
wing	-12.7525
ree	-12.7525
ESK	-12.7526
wap	-12.7527
▁Inte	-12.7528
vI	-12.7533
step	-12.7535
193	-12.7536
techni	-12.7538
VE	-12.7539
▁Imp	-12.7543
ective	-12.7543
eksa	-12.7544
▁Skan	-12.7545
rava	-12.7547
stance	-12.7547
▁112.	-12.7552
vx	-12.7556
esults	-12.7559
ottom	-12.7559
▁Fun	-12.7568
▁ASM	-12.7571
▁Jac	-12.7572
icular	-12.7573
ULL	-12.7575
Jet	-12.7575
bott	-12.7577
riz	-12.7578
cra	-12.7579
passe	-12.7581
xi	-12.7582
▁GD	-12.7589
▁corporat	-12.7589
▁Sah	-12.7592
▁Ameri	-12.7595
▁Trans	-12.7598
anche	-12.7599
-------------	-12.7601
24-	-12.7602
equenc	-12.7602
cyc	-12.7604
garde	-12.7605
106	-12.7606
XJ	-12.7607
▁cul	-12.7608
052	-12.7609
▁Communi	-12.761
gains	-12.7612
irming	-12.7615
UA	-12.7615
rises	-12.7617
ikko	-12.7618
Sys	-12.7619
239	-12.762
▁Analys	-12.7622
WP	-12.7623
Weste	-12.7623
800	-12.7624
vic	-12.7626
YP	-12.7626
▁Subscri	-12.7626
Cable	-12.7633
oski	-12.7633
tage	-12.7634
▁tab	-12.7635
htam	-12.7636
erox	-12.7637
bour	-12.764
ggl	-12.7644
▁Profi	-12.765
Far	-12.7653
ggre	-12.7655
▁irre	-12.7656
fab	-12.7656
bras	-12.7658
▁pul	-12.766
▁char	-12.7665
alwar	-12.7668
425	-12.7672
31.	-12.7673
rak	-12.7677
▁brok	-12.7679
▁Iv	-12.768
kdr	-12.7682
▁prev	-12.7682
ggie	-12.7687
ecently	-12.7689
NOR	-12.7689
152	-12.7689
OB	-12.7691
razy	-12.7695
Los	-12.7696
UAN	-12.7697
▁Us	-12.7698
▁330	-12.7701
tems	-12.7707
▁pas	-12.7712
milli	-12.7713
4.2%	-12.7715
Cz	-12.7716
▁prospe	-12.7728
Thank	-12.773
299,	-12.7734
rota	-12.7738
143	-12.7741
▁113	-12.7743
respond	-12.7744
473	-12.7745
xtension	-12.7746
Well	-12.7746
best	-12.7748
TAT	-12.775
bev	-12.775
▁Kol	-12.7752
▁Scot	-12.7753
idates	-12.7754
hine	-12.7756
sted	-12.7757
INT	-12.7759
pier	-12.7761
oyer	-12.7764
hor	-12.7766
332	-12.7767
tella	-12.7767
▁VER	-12.7774
,23	-12.7775
ake	-12.7776
▁$27	-12.7777
main	-12.778
roche	-12.7785
▁Pek	-12.7788
▁128	-12.7792
GB	-12.7796
NX	-12.7796
uu	-12.7799
▁COR	-12.7799
HI	-12.7813
atters	-12.7815
▁cre	-12.7815
FK	-12.7819
rmal	-12.7822
▁Fee	-12.7823
4,2	-12.7824
ox	-12.7824
Appro	-12.7832
▁Capit	-12.7834
156	-12.7838
tler	-12.7843
omeo	-12.7846
▁Ahol	-12.7852
imo	-12.7852
ssociation	-12.786
UB	-12.7861
otek	-12.7866
dle	-12.7867
77.	-12.7874
97,	-12.7888
apa	-12.7889
▁Esp	-12.7896
▁Tie	-12.7896
▁repea	-12.7897
107	-12.7902
▁abov	-12.7904
▁Reca	-12.7915
Cons	-12.7918
▁Pow	-12.7918
hur	-12.7919
ntage	-12.7921
bucks	-12.7929
utions	-12.7929
95-	-12.7935
▁AV	-12.7935
vement	-12.7941
kan	-12.7944
▁Ska	-12.7944
berl	-12.7948
whi	-12.7953
▁Marie	-12.7958
7,	-12.7959
xb	-12.7959
▁ext	-12.796
▁bake	-12.7962
jr	-12.7964
xp	-12.7968
▁Stoch	-12.7973
▁capab	-12.7979
ainer	-12.7986
▁financ	-12.799
STO	-12.7991
▁vac	-12.7993
85,0	-12.7996
aughter	-12.8002
▁Who	-12.8004
2000	-12.8013
atient	-12.8014
software	-12.8014
▁Glen	-12.8015
uct	-12.8021
prene	-12.8022
etro	-12.8023
▁melt	-12.8024
5,2	-12.8024
▁relation	-12.8024
▁yea	-12.803
▁Rei	-12.8032
mont	-12.8038
7.3	-12.8041
olume	-12.8049
rbor	-12.805
vesti	-12.805
PORT	-12.805
▁sponsors	-12.8055
hy	-12.8066
▁tabl	-12.8067
Ta	-12.8067
▁Eva	-12.8068
EF	-12.8072
gate	-12.8075
▁Grap	-12.8077
SR	-12.8079
▁Philip	-12.8087
▁112	-12.8094
cq	-12.8099
retain	-12.8104
cissor	-12.811
▁Nat	-12.8114
illar	-12.8115
▁64,	-12.8125
430	-12.8126
arrier	-12.8127
nalysis	-12.8139
ayi	-12.814
strat	-12.8146
domes	-12.815
steel	-12.8153
▁Bang	-12.8155
acy	-12.8158
pak	-12.816
AVI	-12.8164
ataly	-12.8166
▁Rost	-12.8171
rgo	-12.8175
says	-12.8177
esco	-12.818
▁addi	-12.8184
▁Ref	-12.8185
IG	-12.8186
,70	-12.8187
rush	-12.8188
▁62.	-12.8202
▁77	-12.8217
wei	-12.8223
▁awa	-12.8224
5.20	-12.8226
FU	-12.8229
wC	-12.823
agn	-12.8231
▁123	-12.8232
ethod	-12.8234
▁Speciali	-12.8237
veil	-12.8238
wH	-12.8241
eas	-12.8246
▁econ	-12.8254
launch	-12.8255
AF	-12.826
rders	-12.8295
111	-12.8298
108	-12.8301
ulk	-12.8306
▁sevent	-12.8308
otel	-12.8309
116	-12.8314
gf	-12.8318
master	-12.832
LOL	-12.8323
▁Tall	-12.8328
uote	-12.8332
sident	-12.8336
▁65,	-12.8337
▁Finan	-12.834
andard	-12.8341
onka	-12.8342
▁fed	-12.8342
eals	-12.8343
ankki	-12.835
▁Ast	-12.8359
▁$0.3	-12.8362
▁heav	-12.8367
Pu	-12.8369
▁Coc	-12.8374
▁Bil	-12.8381
OE	-12.8384
rad	-12.8398
▁Far	-12.8411
▁19,	-12.8418
▁19.4	-12.8421
58,	-12.8425
reight	-12.8425
▁poly	-12.843
▁sca	-12.8432
2,7	-12.8437
cka	-12.8443
gov	-12.8445
Br	-12.8451
Jon	-12.8457
SY	-12.8466
rouble	-12.8471
XD	-12.8474
mous	-12.8474
KA	-12.8475
▁Lih	-12.8481
recent	-12.8482
▁purs	-12.8486
eavy	-12.8488
hours	-12.8496
manager	-12.8507
tex	-12.8507
evi	-12.8509
turning	-12.8511
PV	-12.8513
ALT	-12.852
19.8	-12.852
Sep	-12.8522
▁191	-12.8532
NTC	-12.8535
ssage	-12.8542
alking	-12.8542
lou	-12.8543
ucks	-12.8546
▁Stro	-12.855
Yi	-12.8553
years	-12.8574
▁Gener	-12.8579
▁Trav	-12.8584
▁reb	-12.8586
tatistic	-12.8589
▁nee	-12.8598
Vel	-12.8599
teria	-12.8601
▁fur	-12.8606
urton	-12.8608
realis	-12.8616
rout	-12.8623
tract	-12.8627
gl	-12.8647
89,	-12.8652
Kl	-12.8659
▁fix	-12.866
EV	-12.8664
SIA	-12.8671
▁VI	-12.8672
educ	-12.8673
121	-12.8679
umen	-12.868
▁Hear	-12.8682
▁Ima	-12.8689
oma	-12.869
ourc	-12.8699
ema	-12.87
Sv	-12.8701
▁Clo	-12.8703
▁syn	-12.871
WAP	-12.8713
isk	-12.8716
RIB	-12.8716
88,	-12.8727
▁207	-12.873
lks	-12.8731
▁Sup	-12.8743
$9.	-12.8745
▁Countr	-12.875
leri	-12.8761
Oi	-12.8761
104	-12.8768
▁applica	-12.8778
▁Hot	-12.8782
Maat	-12.8791
ester	-12.8799
43.	-12.8803
▁zo	-12.8808
▁entit	-12.8813
lite	-12.8817
Mh	-12.8826
erio	-12.8837
500,	-12.8838
▁Offic	-12.8839
▁cont	-12.8845
organisation	-12.8849
▁Oc	-12.8851
▁TAL	-12.8852
cB	-12.8858
▁$35	-12.8862
236	-12.8875
▁popula	-12.8878
DV	-12.8884
▁Geo	-12.8889
Bo	-12.8894
NR	-12.8897
eographic	-12.8901
siz	-12.8916
sav	-12.8916
Bid	-12.8918
▁tende	-12.8919
83,	-12.8928
oting	-12.8932
▁exten	-12.8935
cat	-12.8937
mith	-12.8946
Rautak	-12.8949
▁401	-12.895
iron	-12.8959
▁Som	-12.8967
▁Southe	-12.8969
nveil	-12.8973
eva	-12.8976
▁4-	-12.8978
▁Gun	-12.8987
▁Stan	-12.8988
easing	-12.8991
▁sti	-12.9006
ifi	-12.901
deals	-12.901
tio	-12.9016
Gas	-12.9022
▁interv	-12.9028
TC	-12.9035
801	-12.9037
▁Hold	-12.9042
abo	-12.905
icy	-12.905
35-	-12.9051
talk	-12.9068
Rum	-12.9077
quisition	-12.9081
reta	-12.9084
manen	-12.9084
wed	-12.9097
alties	-12.9103
Bi	-12.9114
▁03	-12.9115
fficienc	-12.9123
ami	-12.913
requenc	-12.9141
,90	-12.9152
train	-12.9153
HO	-12.9162
▁$15	-12.9164
Fea	-12.9164
oon	-12.9177
user	-12.9179
03-	-12.9181
▁Reli	-12.9184
erce	-12.9187
▁Slov	-12.9204
yard	-12.9211
▁je	-12.9213
owners	-12.9217
nfrastructure	-12.9219
phal	-12.9227
quis	-12.9238
team	-12.9244
▁$57	-12.9246
▁pic	-12.9252
yber	-12.9257
But	-12.9261
▁Indi	-12.9262
▁identif	-12.9266
▁82.	-12.9267
▁Bull	-12.9269
mino	-12.9272
▁Too	-12.9278
fl	-12.9279
pans	-12.9279
hamme	-12.9283
terp	-12.9289
Den	-12.9292
ongrats	-12.9301
location	-12.9317
▁categori	-12.9322
eken	-12.933
Bus	-12.9333
Fle	-12.9341
lick	-12.9343
tation	-12.9349
Dep	-12.9349
▁MM	-12.9362
143.	-12.9366
MAP	-12.9366
orit	-12.9379
puter	-12.938
rnal	-12.9381
omon	-12.9382
orizont	-12.9385
VT	-12.9387
Fl	-12.9389
▁inte	-12.9401
firm	-12.9404
▁Sim	-12.9414
exis	-12.9423
articles	-12.9428
▁wro	-12.9434
56.8	-12.9441
▁dist	-12.9445
▁enco	-12.9475
chem	-12.9478
oca	-12.9485
tension	-12.9488
▁tail	-12.9495
trie	-12.9507
010	-12.9509
cen	-12.9528
▁advertise	-12.953
CRO	-12.9539
CompaniesT	-12.9552
▁revi	-12.9553
Pra	-12.9554
alous	-12.9556
197	-12.9563
shal	-12.9565
▁compu	-12.9576
▁Loc	-12.9577
terior	-12.9578
aria	-12.9583
section	-12.9588
rmin	-12.959
▁citi	-12.9596
▁83	-12.9598
ctions	-12.9601
arp	-12.9609
cern	-12.9622
oz	-12.9634
▁Boe	-12.9637
2.5	-12.9642
icis	-12.9648
▁Was	-12.9648
ept	-12.9648
▁Ever	-12.9652
▁Dece	-12.9655
icens	-12.966
dg	-12.966
dam	-12.9665
Ak	-12.9678
taj	-12.968
ersonal	-12.9681
RF	-12.9683
▁.02	-12.9696
Add	-12.9703
3-	-12.9717
SF	-12.9718
ncing	-12.9725
lope	-12.9725
wis	-12.9734
USI	-12.9739
▁stee	-12.9744
▁Sains	-12.9752
GRP	-12.9753
tumble	-12.9753
oc	-12.9754
▁Ske	-12.9757
▁mon	-12.9761
Don	-12.9778
efin	-12.9779
Complet	-12.978
ngredient	-12.9783
03.	-12.9787
odu	-12.9792
mpetition	-12.9799
complete	-12.9808
fro	-12.9815
▁ge	-12.9827
ank	-12.9858
OG	-12.9861
ehu	-12.9862
ISO	-12.9866
▁donat	-12.9868
Stee	-12.9871
Operation	-12.9876
,89	-12.9877
▁$8	-12.9904
▁earning	-12.9905
Pos	-12.9908
ossibl	-12.9923
mplifie	-12.9933
▁rea	-12.994
▁Tren	-12.9941
ament	-12.9943
ybe	-12.9948
adem	-12.995
stro	-12.9965
nnis	-12.9973
SAB	-12.9974
uni	-12.9974
arked	-12.9982
utic	-12.9984
pani	-12.9984
▁Ci	-12.9988
▁dye	-12.9996
riday	-13
▁bar	-13.0004
Forestr	-13.0011
DD	-13.0016
mmun	-13.0018
▁ar	-13.0022
▁underst	-13.0026
ques	-13.0027
appl	-13.0049
▁beha	-13.0053
issi	-13.0054
sp	-13.0061
▁1000	-13.0063
▁MAR	-13.007
▁Ins	-13.0079
IE	-13.0091
▁telecomm	-13.0107
Hous	-13.011
rma	-13.0116
Yht	-13.013
ouri	-13.0146
▁misse	-13.0152
▁spee	-13.0153
Iva	-13.0165
20.8	-13.0165
ahlstr	-13.0181
Fa	-13.0181
▁strategi	-13.0191
16,	-13.0192
mart	-13.0195
Tr	-13.0196
Dai	-13.0199
itional	-13.0207
eks	-13.0209
yv	-13.0215
▁4,	-13.0216
3,6	-13.0219
brea	-13.0221
Das	-13.0229
dget	-13.024
▁cri	-13.0243
002	-13.0247
▁Ori	-13.0249
▁Prec	-13.0255
▁Hal	-13.0268
ofi	-13.027
serv	-13.027
rogen	-13.0284
187	-13.0295
eni	-13.0304
bed	-13.0325
90,	-13.0329
emp	-13.0345
▁Cum	-13.0357
▁70,	-13.0359
obe	-13.0366
▁ven	-13.0389
▁Ter	-13.0399
sit	-13.0402
▁Mul	-13.0402
▁Lou	-13.0402
▁Mol	-13.0403
▁$50	-13.0403
-2	-13.0416
▁Ah	-13.0419
endor	-13.0428
rksh	-13.0436
▁Saa	-13.044
▁Key	-13.0442
nsi	-13.0449
dcast	-13.0451
tane	-13.0461
Lun	-13.0464
bey	-13.0469
▁pl	-13.0471
ines	-13.0473
▁Syn	-13.0487
itor	-13.0492
▁Aven	-13.0504
Vu	-13.0511
fuels	-13.0512
arketplace	-13.0521
isso	-13.0529
tis	-13.0546
▁disc	-13.0573
▁MC	-13.0586
rob	-13.0598
axi	-13.0598
TAS	-13.0601
BN	-13.0616
pac	-13.0632
▁traine	-13.0634
sma	-13.0636
▁Ira	-13.0649
▁SP	-13.065
28.6	-13.0675
334	-13.0698
loni	-13.07
ili	-13.071
▁ev	-13.0721
quest	-13.0731
tele	-13.0761
lmar	-13.0768
stage	-13.0775
▁EV	-13.0783
zy	-13.0792
▁Roy	-13.0798
hrist	-13.0803
nie	-13.0832
Nom	-13.0846
turi	-13.0851
vers	-13.0854
rice	-13.0867
▁Tw	-13.087
050	-13.088
▁Ap	-13.088
▁prem	-13.0885
▁Tale	-13.089
▁26,	-13.0895
mig	-13.091
▁uns	-13.0916
854	-13.0917
itions	-13.0936
cost	-13.0939
▁TH	-13.0949
▁ND	-13.0954
▁cru	-13.0961
▁Cel	-13.0961
tures	-13.0963
▁negotiati	-13.0964
enue	-13.0966
▁Kon	-13.0969
▁54.	-13.1004
dea	-13.1015
tight	-13.1016
▁scho	-13.102
▁Kaza	-13.1027
▁Lif	-13.1036
▁regulate	-13.1042
▁TT	-13.1049
metric	-13.1052
,299	-13.1061
sition	-13.112
rta	-13.1121
▁ret	-13.1121
erty	-13.1122
oatings	-13.1125
▁metr	-13.1151
▁Sw	-13.1152
▁40.0	-13.1158
fo	-13.1167
▁Mag	-13.117
ecycle	-13.1232
Si	-13.1271
elli	-13.1272
pend	-13.1278
▁Foo	-13.1288
trategic	-13.13
Techn	-13.1316
comm	-13.1326
jection	-13.1331
▁Settle	-13.1338
kes	-13.1339
oope	-13.1347
tti	-13.1348
maco	-13.135
▁$30	-13.1367
585	-13.1367
▁es	-13.1375
37	-13.1376
Exe	-13.1378
Pr	-13.1388
poo	-13.1406
▁mi	-13.1406
6,8	-13.1443
stow	-13.1445
▁prove	-13.1451
ptimiz	-13.1452
charts	-13.1454
ithdraw	-13.1457
ang	-13.1472
session	-13.1473
ctor	-13.1473
tool	-13.1499
22.5	-13.1508
1,25	-13.1509
motel	-13.1511
BIT	-13.152
ml	-13.1542
▁30.	-13.1569
lion	-13.1576
▁100-	-13.1581
Fe	-13.1581
SIT	-13.1582
▁organi	-13.1598
▁Nie	-13.1608
▁29,	-13.1611
CLN	-13.1635
acket	-13.1641
▁Ii	-13.1643
Non	-13.1646
.26	-13.1647
eter	-13.1655
Ba	-13.1668
▁Pent	-13.1669
stop	-13.167
Ke	-13.167
▁Brea	-13.1671
1/2	-13.1676
HAS	-13.1682
uropean	-13.1686
▁Innov	-13.1703
▁impa	-13.1711
azi	-13.1737
umble	-13.174
▁Agr	-13.1744
▁Ea	-13.1744
▁j	-13.1779
Ris	-13.1783
rthern	-13.1801
WW	-13.1801
▁carr	-13.1806
,43	-13.1833
▁$0.0	-13.1834
Un	-13.1835
lor	-13.184
NO	-13.1864
lat	-13.1865
financ	-13.1903
--	-13.1909
▁Lar	-13.1909
▁+5	-13.1919
ears	-13.1927
ried	-13.1934
dates	-13.1963
hout	-13.1977
890	-13.1981
Cas	-13.2001
wen	-13.2008
▁dia	-13.203
▁11,	-13.2036
▁Astra	-13.205
Ah	-13.2071
gues	-13.2081
1-20	-13.2115
tric	-13.2127
Ye	-13.2144
23.2	-13.2147
NF	-13.2149
@	-14.1201
